<s>	0
</s>	0
<cls>	0
<pad>	0
<sep>	0
<unk>	0
<mask>	0
<eop>	0
<eod>	0
,	-2.04437
。	-3.52982
:“	-3.89868
。”	-4.48041
的	-4.53288
道	-5.09248
他	-5.11882
我	-5.12439
?”	-5.1283
你	-5.17637
了	-5.27429
▁	-5.30253
、	-5.51181
?	-5.54133
是	-5.72602
在	-5.83553
这	-5.8531
她	-5.86174
!”	-5.9225
说道	-5.94598
那	-5.95488
来	-6.04132
“	-6.05712
”	-6.1318
但	-6.13246
一	-6.15576
又	-6.19264
上	-6.20166
不	-6.22277
中	-6.2743
便	-6.29839
去	-6.31794
和	-6.32525
将	-6.34962
......	-6.34971
也	-6.36399
已	-6.4066
郭靖	-6.42081
却	-6.44604
有	-6.45681
杨过	-6.47335
令狐冲	-6.50677
自己	-6.5263
大	-6.5498
人	-6.58744
得	-6.61783
要	-6.64362
向	-6.64628
张无忌	-6.69387
黄蓉	-6.70822
‘	-6.73077
!	-6.7398
好	-6.78157
与	-6.78775
都	-6.81894
见	-6.82187
到	-6.82523
一个	-6.83209
咱们	-6.84629
说	-6.86851
叫道	-6.90214
以	-6.92243
’	-6.92649
从	-6.93212
下	-6.93864
为	-6.95627
再	-6.96848
么	-6.98369
之	-6.99525
段誉	-7.0037
对	-7.05239
笑道	-7.06111
心想	-7.07902
师父	-7.0857
只是	-7.09311
两人	-7.11851
而	-7.12184
出	-7.13448
......”	-7.13539
只	-7.14442
过	-7.15235
后	-7.15847
时	-7.15958
可	-7.17255
之中	-7.17856
只见	-7.18855
他们	-7.21538
啊	-7.22749
自	-7.23421
武功	-7.23435
着	-7.24943
心中	-7.25817
如此	-7.26785
当下	-7.29883
于	-7.3144
小	-7.31706
就	-7.31882
我们	-7.32188
连	-7.32641
便是	-7.33804
甚么	-7.35127
如	-7.37379
给	-7.37949
不知	-7.38206
所	-7.39476
:	-7.42469
等	-7.42801
虽然	-7.42917
打	-7.43799
想	-7.43907
都是	-7.4395
今日	-7.45691
二人	-7.46036
子	-7.46155
三	-7.46331
没	-7.46943
你们	-7.47337
如何	-7.47832
小龙女	-7.4849
用	-7.48505
突然	-7.48825
回	-7.49129
之后	-7.50905
众人	-7.51576
无	-7.51769
心	-7.52024
却是	-7.54239
正是	-7.55041
萧峰	-7.55938
知道	-7.58108
还	-7.58395
问道	-7.59058
啦	-7.59419
不是	-7.59726
这时	-7.6019
当	-7.61413
也是	-7.61523
眼见	-7.61735
头	-7.62074
听	-7.6254
被	-7.63403
死	-7.64254
喝道	-7.64296
多	-7.64403
原来	-7.65063
弟子	-7.6528
生	-7.65714
可是	-7.66065
手	-7.66078
跟着	-7.66133
快	-7.66352
使	-7.66462
虚竹	-7.67543
出来	-7.67737
正	-7.68894
前	-7.69583
成	-7.69606
两	-7.69698
不可	-7.71232
天	-7.71258
起	-7.71279
能	-7.71757
剑	-7.71848
倘若	-7.72273
登时	-7.72554
身子	-7.74234
欧阳锋	-7.75172
当即	-7.75303
不敢	-7.75357
那人	-7.75516
请	-7.76158
什么	-7.76556
罢	-7.76605
这个	-7.76627
更	-7.77551
左手	-7.77668
▁“	-7.77718
呢	-7.78094
虽	-7.78241
一人	-7.78283
赵敏	-7.79282
把	-7.80083
:‘	-7.80389
倒	-7.80434
之下	-7.80639
行	-7.8109
气	-7.81881
会	-7.82081
又是	-7.82321
还是	-7.83352
竟	-7.83591
才	-7.83675
先	-7.83754
谢逊	-7.83906
身	-7.84278
跟	-7.84684
到了	-7.8469
个	-7.85156
非	-7.85401
一般	-7.85653
入	-7.85723
有人	-7.85724
长	-7.86678
右手	-7.8736
身上	-7.88919
不能	-7.89057
儿	-7.89559
这般	-7.90102
处	-7.90241
说着	-7.9025
见到	-7.90696
功夫	-7.90897
字	-7.91443
乔峰	-7.92427
脸上	-7.92524
敌人	-7.92545
三人	-7.9255
见他	-7.9281
走	-7.9295
力	-7.93317
吗	-7.93633
做	-7.93783
只怕	-7.93822
双手	-7.9395
只听得	-7.95048
之时	-7.95416
直	-7.95762
地	-7.95966
盈盈	-7.96456
对方	-7.9676
水	-7.96926
岳不群	-7.97797
说话	-7.98331
长剑	-7.98741
忙	-7.9884
兄弟	-7.99097
叫	-7.9944
事	-7.99718
心下	-7.99872
怎么	-7.99919
张翠山	-8.00344
当真	-8.00361
不由得	-8.00409
未	-8.00645
此	-8.007
洪七公	-8.00743
往	-8.00937
开	-8.01075
杀	-8.01408
别	-8.01559
黄药师	-8.0199
发	-8.02027
周伯通	-8.02091
四	-8.02405
不禁	-8.02481
若是	-8.02656
仍是	-8.02958
极	-8.02959
口	-8.03081
之人	-8.03169
外	-8.03464
难	-8.03951
重	-8.03984
只有	-8.0434
似乎	-8.04621
间	-8.047
此时	-8.04749
看	-8.05013
里	-8.05411
高	-8.05429
这位	-8.05744
听得	-8.05902
姑娘	-8.06323
不过	-8.06904
在下	-8.07048
这些	-8.07406
更是	-8.07481
令狐冲道	-8.07502
阿朱	-8.07825
比	-8.08047
出手	-8.0865
相	-8.09128
命	-8.09249
李莫愁	-8.0969
马	-8.09717
岳灵珊	-8.09936
门	-8.10551
阿紫	-8.10592
作	-8.10727
那是	-8.10762
不得	-8.10931
既	-8.1134
爹爹	-8.1153
受	-8.11788
之事	-8.12446
甚是	-8.12563
剑法	-8.12838
风	-8.13024
待	-8.13181
郭襄	-8.13231
起来	-8.13441
落	-8.13695
老	-8.14007
急	-8.15097
早已	-8.15215
同时	-8.15485
于是	-8.15511
动	-8.15768
名	-8.1592
这才	-8.16418
之上	-8.16681
忽然	-8.17053
内力	-8.17179
手中	-8.17204
问	-8.17717
一时	-8.17933
酒	-8.18001
十分	-8.18334
是谁	-8.18469
旁人	-8.19015
适才	-8.19036
山	-8.19495
刀	-8.19556
家	-8.19646
此刻	-8.1971
声	-8.1973
他的	-8.19775
但见	-8.19913
白	-8.20245
不错	-8.20555
花	-8.20577
难道	-8.21095
五	-8.21572
慕容复	-8.22048
实是	-8.22117
本来	-8.22157
当年	-8.23063
尽	-8.23305
真	-8.23338
分	-8.23505
吃	-8.23586
这是	-8.24139
:”	-8.24232
心道	-8.24405
段正淳	-8.24565
木婉清	-8.24972
走到	-8.25063
方	-8.25456
自是	-8.25538
众	-8.26122
给他	-8.26131
天下	-8.2627
法	-8.26409
就是	-8.26668
也不	-8.26704
二	-8.26799
话	-8.27055
王语嫣	-8.2726
两个	-8.27264
放	-8.27991
神	-8.28368
转	-8.28406
将他	-8.28518
便即	-8.28645
这等	-8.28934
轻轻	-8.2917
其	-8.29464
反	-8.2951
法王	-8.29842
练	-8.29987
只得	-8.29999
已然	-8.3031
林平之	-8.30312
低声道	-8.30538
黄蓉道	-8.30736
没有	-8.31404
斗	-8.31438
若	-8.31493
郭芙	-8.31505
之意	-8.31676
怒道	-8.31716
破	-8.31833
面	-8.32031
是个	-8.32151
意	-8.32416
过去	-8.32467
掌	-8.3283
伸手	-8.32922
几	-8.32975
胸口	-8.32987
田伯光	-8.33143
听到	-8.33178
让	-8.33732
立时	-8.33871
全身	-8.34225
深	-8.34309
只听	-8.34523
乱	-8.34808
进	-8.34849
越	-8.35003
仪琳	-8.35119
却也	-8.35169
至	-8.35222
谁	-8.35425
动手	-8.3549
些	-8.35588
教	-8.35619
自然	-8.35718
情	-8.36039
只觉	-8.36158
兵刃	-8.36652
周芷若	-8.36731
又道	-8.37214
杀了	-8.37234
出去	-8.38274
死了	-8.38517
击	-8.38695
丘处机	-8.39055
最	-8.39192
学	-8.39326
过来	-8.39425
伤	-8.39748
脸	-8.39794
竟然	-8.39878
《	-8.39939
》	-8.39939
早	-8.39959
同	-8.40186
各	-8.40288
竟是	-8.40304
似	-8.4038
曾	-8.404
之处	-8.40475
突然间	-8.40503
教主	-8.40592
招	-8.40595
各人	-8.40712
点	-8.40828
笑	-8.40848
定	-8.40968
实	-8.40985
一阵	-8.4116
强	-8.41188
丐帮	-8.41411
这人	-8.41421
▁”	-8.41458
离	-8.41491
数	-8.41664
此人	-8.41784
带	-8.42156
甚	-8.42968
住	-8.43155
女儿	-8.43167
知	-8.43275
立即	-8.43338
声音	-8.44005
内	-8.4403
终于	-8.44107
者	-8.44158
此事	-8.44243
一声	-8.44304
就算	-8.44665
飞	-8.44847
一招	-8.45213
不住	-8.45538
是以	-8.4585
之极	-8.45874
是不是	-8.45883
断	-8.462
郭靖道	-8.46443
大叫	-8.46629
前辈	-8.46961
却又	-8.47082
一齐	-8.47183
不肯	-8.47365
因此	-8.47481
瞧	-8.47491
明	-8.4772
响	-8.47812
毒	-8.47934
然	-8.4811
的武功	-8.48345
一条	-8.48548
慢慢	-8.48637
厉害	-8.48774
之间	-8.4921
;	-8.4951
眼	-8.4955
四人	-8.49596
不会	-8.49882
性命	-8.49993
六	-8.50081
刺	-8.50127
怎地	-8.50411
张无忌道	-8.50595
来到	-8.50734
冲	-8.50745
爱	-8.50852
攻	-8.50957
大哥	-8.51246
推	-8.51372
果然	-8.51374
西	-8.51415
眼前	-8.51483
传	-8.51623
忽听得	-8.5167
收	-8.52113
路	-8.52227
那么	-8.52375
经	-8.52507
全	-8.52581
令	-8.52786
干	-8.52961
由	-8.53213
两位	-8.53334
否则	-8.53399
本	-8.53545
日	-8.54069
取	-8.54251
或	-8.54335
拿	-8.5456
总是	-8.55059
只要	-8.55112
立	-8.55557
想到	-8.55714
救	-8.5584
奇	-8.55875
之际	-8.55979
火	-8.55989
居然	-8.56187
寻思	-8.56252
轻	-8.5633
你说	-8.5647
杨过道	-8.566
喝	-8.56625
唉	-8.56995
欧阳克	-8.57035
石	-8.5705
远	-8.57117
’,	-8.57361
人家	-8.57892
大家	-8.58549
无法	-8.58747
向他	-8.59049
之前	-8.59436
这么	-8.59615
铁	-8.59675
坐	-8.59797
半	-8.59999
之外	-8.6022
童姥	-8.61013
真是	-8.612
乃是	-8.61287
八	-8.61346
微	-8.61365
任我行	-8.61617
东	-8.61633
其实	-8.61736
给你	-8.619
除了	-8.61991
游坦之	-8.62002
转身	-8.62104
送	-8.62305
指	-8.62365
求	-8.6248
明白	-8.62723
你的	-8.62881
之声	-8.62973
帮主	-8.62993
中的	-8.63117
柯镇恶	-8.63161
位	-8.63519
一掌	-8.63599
想起	-8.63933
高手	-8.6397
刚	-8.64036
苦	-8.64165
向问天	-8.64194
交	-8.64436
反而	-8.64505
黑	-8.6469
不到	-8.64912
光	-8.65037
师弟	-8.65054
哪知	-8.65196
药	-8.65199
足	-8.65311
通	-8.6549
鸠摩智	-8.65508
给我	-8.65554
少林寺	-8.65598
空	-8.65685
那少女	-8.65686
微笑道	-8.65754
张	-8.65854
红	-8.65938
父亲	-8.66358
难以	-8.66381
边	-8.66464
你是	-8.66685
信	-8.66715
急忙	-8.66876
十	-8.67254
近	-8.67315
的一声	-8.67404
少	-8.67466
合	-8.67505
站起身来	-8.67586
陆无双	-8.67686
南海鳄神	-8.67895
年	-8.6819
口中	-8.68223
确是	-8.68288
缓缓	-8.68385
更加	-8.68439
师兄	-8.68601
金	-8.68635
言	-8.68656
解	-8.68832
一面	-8.68927
赵志敬	-8.69149
站在	-8.69748
怕	-8.69828
梅超风	-8.69892
后来	-8.69986
杨逍	-8.70297
大师	-8.70367
为了	-8.70395
在这里	-8.70509
嗯	-8.70862
亲	-8.71247
左	-8.7126
杨康	-8.71408
关	-8.71458
一只	-8.71483
啊哟	-8.71724
黄	-8.7174
七	-8.71877
定是	-8.71983
及	-8.72165
活	-8.72291
横	-8.72521
敌	-8.72578
血	-8.72911
的事	-8.73255
伸	-8.73369
章	-8.73485
书	-8.73646
念	-8.73736
冷笑道	-8.73811
明教	-8.73883
看来	-8.73968
这样	-8.73969
接	-8.74046
背	-8.74166
我是	-8.74217
一笑	-8.74452
随即	-8.74481
这一	-8.74532
不及	-8.74984
忍不住	-8.75008
上了	-8.7527
哈哈大笑	-8.75361
群雄	-8.75422
何况	-8.75602
均	-8.75646
一名	-8.75862
兵	-8.75943
一直	-8.76034
必	-8.7609
不用	-8.76162
听他	-8.76248
每	-8.76363
哼	-8.76554
晚辈	-8.76644
段誉道	-8.76705
下去	-8.76735
去了	-8.76787
大声道	-8.7692
显是	-8.76945
般	-8.76974
一片	-8.77302
的话	-8.77371
正要	-8.77591
微微一笑	-8.77623
殷素素	-8.77645
势	-8.77825
变	-8.77933
齐	-8.77964
喂	-8.78002
灭绝师太	-8.78027
清	-8.78083
钟灵	-8.78262
原	-8.78322
不好	-8.78392
始终	-8.78432
无不	-8.78688
脚	-8.7895
叹道	-8.79036
望	-8.79042
抓	-8.79166
左冷禅	-8.79302
。’	-8.79377
那个	-8.7969
鬼	-8.79723
国	-8.79805
提起	-8.79902
右	-8.80039
劲	-8.80275
不成	-8.80438
这一招	-8.80461
上前	-8.8072
则	-8.80773
当真是	-8.80783
恶	-8.80834
大喜	-8.80925
即	-8.80959
并不	-8.81013
说了	-8.81426
身后	-8.81452
下来	-8.82065
回来	-8.82085
旁	-8.82222
中了	-8.82223
太	-8.82285
少林派	-8.82378
到底	-8.82423
绝	-8.82442
算	-8.82513
提	-8.82545
不料	-8.82737
受伤	-8.82835
内功	-8.82859
丁春秋	-8.82985
再说	-8.83371
倒也	-8.83481
坐在	-8.83759
师叔	-8.83986
哪	-8.84045
和他	-8.84236
手掌	-8.84289
是啊	-8.84564
色	-8.84622
觉得	-8.84869
听了	-8.85131
当时	-8.85155
失	-8.85267
拳	-8.85375
加	-8.85461
指点	-8.85692
掌力	-8.85815
女	-8.85863
王	-8.85898
摇头道	-8.85995
张三丰	-8.86049
是我	-8.86185
须得	-8.86218
头上	-8.86237
现下	-8.86437
其中	-8.86656
须	-8.86694
在这	-8.86707
过了	-8.86848
我的	-8.86916
一块	-8.86923
吧	-8.87004
少林	-8.8707
包不同	-8.87251
万	-8.87259
蒙古	-8.87301
只不过	-8.8748
怎样	-8.87732
一张	-8.87811
胜	-8.87896
很	-8.8804
群豪	-8.88251
我爹爹	-8.88389
人人	-8.8845
拉	-8.88532
这小子	-8.88549
师	-8.88651
找	-8.8876
见她	-8.88772
新	-8.88863
只须	-8.88949
服	-8.89112
向来	-8.89235
骂	-8.89294
忽	-8.89648
公子	-8.89691
第一	-8.89755
功	-8.90215
义父	-8.90411
的功夫	-8.90506
派	-8.90743
孩子	-8.90895
功力	-8.90917
哈哈	-8.91
身前	-8.91549
蛇	-8.91648
金轮法王	-8.91675
兄	-8.91677
喜	-8.91701
报仇	-8.91736
手臂	-8.91743
穴	-8.91912
理	-8.92107
随	-8.92113
一怔	-8.92128
点了点头	-8.92193
青	-8.92288
妈	-8.92321
退	-8.92447
并无	-8.9245
箭	-8.92501
了出来	-8.9253
追	-8.9278
进来	-8.92811
因	-8.92876
回头	-8.93067
便道	-8.93074
大师哥	-8.93103
地下	-8.93107
便要	-8.93112
这里	-8.93175
欲	-8.93459
这一下	-8.93464
木	-8.93475
姓	-8.9354
母亲	-8.93744
砍	-8.9376
怪	-8.93784
和尚	-8.93785
已是	-8.94033
无忌	-8.94059
蓉儿	-8.94075
云	-8.94206
实在	-8.9432
有些	-8.94369
裘千仞	-8.94551
渐渐	-8.94594
女子	-8.94783
左掌	-8.94863
己	-8.95007
不愿	-8.95016
不动	-8.95042
跟你	-8.95071
不见	-8.95093
流	-8.95094
岳夫人	-8.95184
何	-8.95273
叹了口气	-8.95426
斜	-8.955
小师妹	-8.95506
战	-8.95516
我师父	-8.95549
头顶	-8.95586
感	-8.95588
说得	-8.95662
怎能	-8.95663
不如	-8.95676
仍	-8.95705
要是	-8.95712
日后	-8.95932
上来	-8.95978
咬	-8.96015
这次	-8.96053
代	-8.96158
跟他	-8.96251
的是	-8.96394
守	-8.96421
骨	-8.96434
正在	-8.96469
双	-8.96654
抢	-8.96673
逃	-8.96909
背上	-8.96914
无人	-8.97013
身旁	-8.97157
何以	-8.97274
尚未	-8.97317
肉	-8.974
归	-8.97418
纵	-8.97439
你这	-8.97468
各位	-8.97469
分别	-8.97488
当日	-8.97637
余沧海	-8.97685
有的	-8.97791
忙道	-8.9797
拍	-8.98006
射	-8.98009
龙	-8.98114
穿	-8.98228
不免	-8.98421
大伙儿	-8.98627
俞莲舟	-8.98708
招数	-8.98794
这么一	-8.98944
穴道	-8.98971
像	-8.99037
并非	-8.99227
手指	-8.99294
很好	-8.99542
痛	-8.99631
姊姊	-8.99708
发出	-8.99944
肩头	-9.00034
极是	-9.00052
一根	-9.00196
乃	-9.00294
在地下	-9.00378
也没	-9.00482
儿子	-9.00636
第二	-9.00643
华山派	-9.00733
一剑	-9.00777
平	-9.00857
姑姑	-9.00875
的声音	-9.01291
船	-9.01335
尽数	-9.01425
举	-9.0155
金花婆婆	-9.01716
鲜血	-9.01755
游	-9.01832
回到	-9.01858
江湖上	-9.01861
文	-9.01942
的人	-9.02076
不论	-9.02168
主	-9.02223
小人	-9.02281
一起	-9.02389
大声	-9.02436
尹志平	-9.02558
也已	-9.02843
向前	-9.02845
岂知	-9.02975
条	-9.02994
吃了	-9.0301
保定帝	-9.03198
取出	-9.03234
回去	-9.03239
而去	-9.03265
精	-9.03266
微微	-9.03586
包	-9.03741
魔教	-9.04022
称	-9.04055
城	-9.04099
而已	-9.04305
一步	-9.04381
抱	-9.04463
最后	-9.04517
睡	-9.04632
料想	-9.0465
闻	-9.04869
主人	-9.05092
一点	-9.0512
两名	-9.05124
满	-9.05148
在此	-9.05168
完颜洪烈	-9.05301
朋友	-9.05383
玉	-9.05504
无比	-9.0557
铁木真	-9.05594
定然	-9.05641
那就	-9.05668
其时	-9.05783
留	-9.0586
双掌	-9.05877
前来	-9.06045
却不	-9.06064
瑛姑	-9.06211
一件	-9.06221
世上	-9.06262
走了	-9.06566
步	-9.06622
妈妈	-9.06626
亦	-9.06707
小昭	-9.06728
身形	-9.06736
们	-9.06766
裘千尺	-9.06833
九	-9.06856
答应	-9.06911
古怪	-9.06915
骂道	-9.06945
渐	-9.07054
面前	-9.0709
不再	-9.07102
恒山派	-9.07188
南	-9.07257
只道	-9.07403
硬	-9.07603
不了	-9.07632
在他	-9.07707
指着	-9.07717
冷冷的道	-9.07835
奇道	-9.07847
吃了一惊	-9.07854
虚	-9.0788
散	-9.07932
还有	-9.08129
师娘	-9.08159
物	-9.08171
大吃一惊	-9.08212
目	-9.08292
对他	-9.08296
叫我	-9.08437
年纪	-9.08455
衣	-9.08516
但他	-9.08557
世	-9.086
眼睛	-9.0868
说到这里	-9.09141
夺	-9.09183
好了	-9.09466
兀自	-9.0957
东方不败	-9.09659
夫人	-9.09871
有甚么	-9.10142
跳	-9.10237
说不定	-9.10239
一股	-9.10247
持	-9.10269
双目	-9.1031
部	-9.10428
寻	-9.10439
它	-9.10532
我便	-9.10533
是否	-9.10601
一灯	-9.10653
一路	-9.10752
三个	-9.10766
百	-9.10939
那些	-9.11203
放在	-9.11206
稍	-9.1156
土	-9.11811
武林中	-9.11873
哼了一声	-9.11915
这件事	-9.11977
拜	-9.12082
先前	-9.12096
多半	-9.12185
逼	-9.12204
华山	-9.1224
纵然	-9.1225
为甚么	-9.12285
居	-9.12326
言语	-9.12387
再也	-9.12411
且	-9.12426
哪里	-9.12473
沉	-9.12482
端	-9.1272
一番	-9.12755
撞	-9.12825
英雄	-9.12837
劲力	-9.12902
引	-9.13087
久	-9.13125
跟我	-9.13168
片刻	-9.13354
常	-9.13357
另	-9.13486
就此	-9.13511
喜欢	-9.13517
待得	-9.13607
瞧着	-9.13689
半点	-9.13837
踢	-9.13839
怒	-9.14197
那婆婆	-9.14199
嘿嘿	-9.1421
听说	-9.14232
不出	-9.14307
武	-9.14357
我要	-9.14385
也好	-9.14409
不对	-9.14518
乌老大	-9.14536
可以	-9.14566
猛	-9.14604
翻	-9.14651
他二人	-9.1468
照	-9.14713
客	-9.14772
好好	-9.14812
显然	-9.1492
牛	-9.1506
官	-9.1509
却已	-9.15092
师妹	-9.15156
划	-9.15317
我也	-9.1544
背后	-9.1549
个个	-9.15499
可惜	-9.15549
刚才	-9.1562
桃谷六仙	-9.15892
阿碧	-9.15893
暗	-9.15915
相救	-9.15925
大事	-9.16064
身边	-9.16078
他是	-9.16105
手上	-9.1623
扑	-9.16437
原是	-9.16595
穆念慈	-9.16622
脸色	-9.16661
便如	-9.1688
不但	-9.16939
奔	-9.16986
之色	-9.17037
抓住	-9.17044
种	-9.17051
将她	-9.17096
草	-9.17136
倒是	-9.17192
初	-9.1725
马夫人	-9.17294
不必	-9.17296
海	-9.173
小僧	-9.17353
武学	-9.17369
滚	-9.17568
衣衫	-9.1757
吩咐	-9.17573
俞岱岩	-9.17589
虽是	-9.17619
暗器	-9.17721
军	-9.17734
树	-9.17902
颇有	-9.18033
解药	-9.18101
低	-9.18175
总	-9.18218
老顽童	-9.18249
大怒	-9.18298
大汗	-9.18309
纷纷	-9.18331
容	-9.1835
愈	-9.18455
布	-9.18478
王夫人	-9.18655
笔	-9.18768
叫他	-9.1878
帮	-9.19009
阵	-9.19042
觉	-9.19083
施	-9.19255
成了	-9.19434
知他	-9.19562
一场	-9.19575
对付	-9.19625
败	-9.19626
欢喜	-9.1963
软	-9.19632
公孙止	-9.19677
但觉	-9.19746
望着	-9.19811
细	-9.1992
和我	-9.1997
点头道	-9.19999
有什么	-9.20034
异常	-9.20123
武当派	-9.20136
洞	-9.20198
又想	-9.20249
用力	-9.20252
美	-9.20363
错	-9.2038
得紧	-9.20424
运	-9.20494
霍都	-9.20763
真的	-9.20778
?’	-9.20819
有个	-9.20831
之心	-9.20931
另有	-9.21356
肯	-9.21468
北	-9.21571
岂能	-9.21572
体	-9.21658
程英	-9.218
夜	-9.21864
决	-9.21891
段延庆	-9.22177
既然	-9.22234
封	-9.22322
这些人	-9.2246
为什么	-9.22551
早就	-9.22556
似是	-9.22628
而来	-9.22666
烧	-9.22755
病	-9.22868
安	-9.22891
闪避	-9.22966
出了	-9.22991
婆婆	-9.23057
下手	-9.23095
若非	-9.23272
腿	-9.23285
腰间	-9.23685
突然之间	-9.23737
月	-9.23782
神色	-9.23827
臭	-9.23894
而出	-9.23898
遇	-9.23921
正自	-9.23956
丝毫	-9.23963
令狐大哥	-9.23985
依	-9.24007
掷	-9.24162
均想	-9.2417
过儿	-9.24435
师姊	-9.24478
为难	-9.24552
行事	-9.24556
露出	-9.24637
一见	-9.24736
自行	-9.24833
疾	-9.24841
才是	-9.24944
挥	-9.24977
生怕	-9.25045
这句话	-9.25084
少年	-9.25103
得了	-9.25132
走出	-9.25136
大理	-9.25154
读	-9.25281
朱聪	-9.25283
嘴	-9.25339
哭	-9.25367
雪	-9.25564
阳	-9.25825
以后	-9.25852
脱	-9.25917
挡	-9.25998
寒	-9.26022
宋青书	-9.26221
别说	-9.26227
结	-9.26234
一个人	-9.26297
报	-9.26327
那日	-9.26338
一句	-9.26355
只好	-9.26407
别人	-9.26474
写	-9.26504
他老人家	-9.26602
换	-9.26619
你要	-9.26846
给她	-9.26912
藏	-9.26951
盛	-9.26956
灵	-9.27146
右掌	-9.2717
她的	-9.27211
固然	-9.27354
周颠	-9.27355
劈	-9.27355
在一起	-9.27362
手下	-9.27587
父母	-9.27599
阁下	-9.276
定要	-9.27602
下山	-9.27682
碗	-9.2771
相见	-9.27732
来的	-9.28096
大有	-9.28104
治	-9.28108
替	-9.2824
跃	-9.28254
一下	-9.28312
又有	-9.28343
之情	-9.28392
受了	-9.28468
对我	-9.28507
一位	-9.28522
只见他	-9.28571
丈夫	-9.28582
次	-9.28631
杀人	-9.28675
打得	-9.28683
避	-9.28893
佩服	-9.2894
完	-9.28962
得很	-9.29002
逃走	-9.29003
完颜康	-9.29024
香	-9.29065
上的	-9.29087
相斗	-9.2934
若不是	-9.2939
担心	-9.29405
殷梨亭	-9.29415
饭	-9.29432
几个	-9.29446
根	-9.29451
管	-9.29552
已经	-9.29556
奉	-9.29569
诸	-9.2959
模样	-9.29725
犹如	-9.29749
公	-9.29835
颇为	-9.29857
远远	-9.29956
何必	-9.2999
记	-9.30181
义	-9.30186
她们	-9.30257
冷	-9.30316
妙	-9.3039
一口	-9.30485
而且	-9.30526
听她	-9.30549
臂	-9.30573
神功	-9.30601
略	-9.30622
走进	-9.3064
请你	-9.30656
满脸	-9.30734
当然	-9.30814
胡说八道	-9.30835
多谢	-9.30852
这几句话	-9.30863
江湖	-9.30937
画	-9.30944
折	-9.30968
心头	-9.31011
夫妇	-9.31081
的手	-9.31115
前面	-9.31192
其余	-9.31226
除	-9.31412
蒙	-9.31423
这一掌	-9.31686
汉子	-9.31697
短	-9.31697
我说	-9.31717
来了	-9.31807
说到	-9.32045
任	-9.32059
奇怪	-9.32088
的大	-9.32137
观	-9.324
段公子	-9.32421
从此	-9.32459
皮	-9.32587
黑白子	-9.32821
瞧瞧	-9.32882
五人	-9.3299
若不	-9.32996
老子	-9.33026
九阴真经	-9.33197
也不知	-9.33197
王处一	-9.33206
为人	-9.33387
暗中	-9.33439
皇帝	-9.33568
一定	-9.33691
毕	-9.3374
胡青牛	-9.33796
伸出	-9.33813
单	-9.3393
这一次	-9.33933
相助	-9.33947
已被	-9.34057
孩儿	-9.34062
小弟	-9.34156
耶律齐	-9.34197
妹子	-9.34197
悄悄	-9.34243
妻子	-9.34303
双眼	-9.34343
角	-9.34354
老衲	-9.34426
千	-9.34428
阴	-9.34464
中原	-9.34547
生死	-9.34548
终究	-9.34574
见了	-9.34607
左右	-9.34793
语	-9.34812
便在此时	-9.34857
师哥	-9.34886
长老	-9.34907
呼	-9.35089
生平	-9.35159
赶	-9.35164
说过	-9.35312
玩	-9.35399
食	-9.35409
想来	-9.35524
忘了	-9.35661
偷	-9.3568
大惊	-9.35704
原来是	-9.35802
均是	-9.35853
只盼	-9.35986
挺	-9.36004
乐	-9.36029
武三通	-9.36059
双足	-9.36085
颤声道	-9.36104
双方	-9.36112
狗	-9.36208
剑招	-9.36213
是你	-9.3625
接过	-9.36481
借	-9.36588
无礼	-9.37066
等人	-9.37138
莫	-9.37243
咦	-9.37315
礼	-9.37344
六人	-9.37358
圆真	-9.37472
一把	-9.37514
想不到	-9.37612
曲	-9.37696
到来	-9.37699
住了	-9.37762
手腕	-9.37772
你爹爹	-9.37809
到处	-9.37933
不信	-9.37982
许多	-9.37995
此后	-9.38041
也就	-9.38049
给人	-9.38078
傻姑	-9.38119
磕头	-9.3812
传授	-9.38146
怎	-9.38258
化	-9.38346
比武	-9.38539
消	-9.38551
范遥	-9.38587
到得	-9.38703
腰	-9.3873
性	-9.38795
首	-9.38894
接着	-9.38931
争	-9.39004
本教	-9.392
全无	-9.39242
恨	-9.3929
耳	-9.39331
在旁	-9.39361
伤了	-9.39423
众弟子	-9.39477
忽地	-9.39499
假	-9.39508
喝酒	-9.39514
被他	-9.39567
那女子	-9.39624
也不能	-9.39647
但听得	-9.39696
刘正风	-9.39731
韦一笑	-9.39863
小龙女道	-9.39905
一对	-9.39921
紧	-9.39935
捉	-9.39952
武艺	-9.39976
比之	-9.40082
房中	-9.40107
压	-9.40253
回答	-9.40311
了下来	-9.40314
哈哈一笑	-9.4032
伤心	-9.40341
我就	-9.40649
该	-9.40702
复	-9.40741
陆冠英	-9.40965
棒	-9.41024
一惊	-9.41025
并	-9.41065
思	-9.4113
纵身	-9.41179
全是	-9.41226
不答	-9.41489
只因	-9.41568
武修文	-9.41593
大为	-9.41599
那时	-9.4162
颇	-9.4164
仙	-9.41692
害怕	-9.41721
了起来	-9.41736
之言	-9.41826
一柄	-9.41865
饮	-9.41981
便将	-9.42052
致	-9.42119
右臂	-9.42203
举起	-9.42306
未必	-9.42344
与他	-9.4236
掌门	-9.42392
何太冲	-9.42474
蛛儿	-9.42486
明知	-9.42657
奔到	-9.42748
然后	-9.42752
全然	-9.42761
靖哥哥	-9.42828
热	-9.42906
这番	-9.42937
了他	-9.42968
劝	-9.42974
震	-9.43027
将来	-9.43039
正好	-9.43151
杖	-9.43208
遇到	-9.43335
使出	-9.43343
呼吸	-9.43353
尚有	-9.43368
的所在	-9.43375
一灯大师	-9.43388
一一	-9.43615
一看	-9.43707
露	-9.43764
差	-9.43771
已将	-9.43826
不同	-9.43906
谢	-9.43935
养	-9.43991
缩	-9.44007
剑尖	-9.44046
小子	-9.44081
杨铁心	-9.44092
宗	-9.44093
摔	-9.44106
决不	-9.44221
纪晓芙	-9.44277
变化	-9.44283
小心	-9.44358
削	-9.44425
凭	-9.44467
已有	-9.44564
按	-9.44871
偏	-9.44956
改	-9.44973
绿萼	-9.44985
鸡	-9.45058
输	-9.45143
武林	-9.45156
放下	-9.45187
神情	-9.45237
先生	-9.45283
共	-9.45388
也都	-9.45405
眼中	-9.45454
体内	-9.45723
越来越	-9.45743
粗	-9.4597
图	-9.45977
那可	-9.45997
骑	-9.46024
一生	-9.46031
轻功	-9.46064
自己的	-9.46079
不懂	-9.46093
厚	-9.46126
一座	-9.46207
闪	-9.46254
异	-9.46263
朝	-9.46372
投	-9.46409
底	-9.46444
抱着	-9.46446
来啦	-9.46485
之力	-9.46491
吸	-9.46496
虚竹道	-9.46645
的弟子	-9.46677
寺	-9.46722
脚下	-9.46766
应	-9.46818
式	-9.46822
有何	-9.46832
巧	-9.4687
过了一会	-9.4689
尚	-9.46912
林震南	-9.4699
半晌	-9.47078
你别	-9.47094
还没	-9.47153
叫你	-9.47158
松	-9.47293
善	-9.47314
视	-9.47316
你师父	-9.47338
跃起	-9.47388
岂不	-9.47435
并未	-9.47542
他说	-9.47602
拖雷	-9.47793
嵩山派	-9.4787
旧	-9.47894
聪明	-9.47907
梁子翁	-9.47912
云中鹤	-9.47915
待要	-9.48027
丑	-9.48028
三位	-9.48036
杨	-9.48059
寻常	-9.48068
段	-9.48131
生气	-9.48185
以致	-9.48241
踏	-9.48278
吐	-9.48312
窜	-9.48356
险	-9.48362
得知	-9.48412
方证	-9.48434
道士	-9.48461
留下	-9.48499
上去	-9.48531
终	-9.48564
躲在	-9.48589
我这	-9.48635
便在	-9.48829
道长	-9.48856
匕首	-9.4904
转头向	-9.49052
故意	-9.49263
鱼	-9.49267
林	-9.4928
晚	-9.49334
应道	-9.4958
不许	-9.49582
忽听	-9.49631
成吉思汗	-9.4965
属下	-9.49663
干么	-9.49717
喜道	-9.49779
钟万仇	-9.498
叶二娘	-9.49803
武当	-9.49884
叫做	-9.49921
这话	-9.50013
皆	-9.50033
顶	-9.50049
青城派	-9.50081
易	-9.50091
至于	-9.50131
不便	-9.5015
玄难	-9.50255
不死	-9.50288
我不	-9.50291
素	-9.50296
设法	-9.50302
托	-9.50313
哥哥	-9.50328
从未	-9.50421
便已	-9.50465
双臂	-9.50774
不易	-9.5087
敢	-9.50917
妙极	-9.50946
令人	-9.50992
过不多时	-9.51329
本派	-9.51352
惊	-9.51421
答允	-9.51513
影	-9.51517
拔	-9.5154
错了	-9.51598
唱	-9.51606
弹	-9.51606
装	-9.51627
修	-9.5163
不少	-9.51669
重重	-9.51695
峨嵋派	-9.51718
了个	-9.51721
瞧去	-9.51843
避开	-9.51857
师伯	-9.51925
门下	-9.51991
罪	-9.5215
成昆	-9.52209
(2)	-9.52229
初时	-9.52353
运气	-9.52375
向后	-9.52392
得罪了	-9.52438
了一声	-9.52509
群	-9.52578
输了	-9.52675
该当	-9.52687
恩师	-9.52793
探	-9.52806
圈	-9.5285
挑	-9.5288
仍然	-9.52921
怀中	-9.52932
说不得	-9.52963
利	-9.53136
一日	-9.53159
摇了摇头	-9.53185
(1)	-9.53203
忽见	-9.53241
墙	-9.53282
一切	-9.53294
老叫化	-9.53298
害	-9.53332
幸好	-9.53341
余	-9.53345
做了	-9.53378
准	-9.53381
背心	-9.53442
此处	-9.53447
砰的一声	-9.53485
接连	-9.53572
登	-9.53627
鹿杖客	-9.5368
枪	-9.53701
声响	-9.53819
反手	-9.53877
全真教	-9.53894
竟会	-9.53924
具	-9.53928
彭连虎	-9.53938
是了	-9.53967
潇湘子	-9.54055
掌门人	-9.541
解开	-9.54276
的性命	-9.54328
乘	-9.54343
古	-9.54358
人物	-9.54531
而行	-9.54541
力气	-9.54603
本事	-9.54711
调	-9.54731
必是	-9.54732
二哥	-9.5478
然而	-9.54914
又问	-9.54917
将军	-9.55021
摆	-9.55139
东西	-9.55164
回过头来	-9.55183
娶	-9.55212
要紧	-9.55217
不说	-9.55264
吓得	-9.55322
识得	-9.55331
让他	-9.55467
扯	-9.5554
尼摩星	-9.55554
门外	-9.55677
第三	-9.55753
却不知	-9.55813
弱	-9.55822
无数	-9.55837
走近	-9.55963
巨	-9.55964
钱	-9.55968
一拳	-9.55972
贼	-9.55978
齐声	-9.5606
一些	-9.56142
夫	-9.56228
弄	-9.56452
得罪	-9.56495
看得	-9.56626
帐	-9.56648
打了	-9.56801
约	-9.56835
队	-9.56857
之法	-9.57015
不久	-9.57083
而死	-9.57097
伏	-9.57106
满了	-9.57127
迎	-9.57138
一指	-9.57189
枝	-9.57323
许	-9.57324
那老者	-9.57395
记得	-9.57396
堂	-9.57413
扬	-9.57474
大是	-9.57494
衣服	-9.57553
施展	-9.57558
尽皆	-9.57717
止	-9.57739
王姑娘	-9.57771
以为	-9.57917
四个	-9.57928
那人道	-9.57947
恒山	-9.58111
鲁有脚	-9.58124
的名字	-9.58225
蓦地里	-9.58236
尊	-9.58248
阿紫道	-9.58325
黄蓉笑道	-9.58333
也不会	-9.58456
德	-9.58517
向她	-9.58541
你也	-9.5856
练功	-9.586
发觉	-9.58665
峰	-9.58704
尹克西	-9.58736
发作	-9.58755
离开	-9.5889
徒	-9.58911
尽是	-9.59049
这许多	-9.59093
外人	-9.59107
屠龙刀	-9.59129
伤口	-9.59134
庄	-9.59164
四下	-9.59197
缓	-9.59206
自知	-9.59225
心念一动	-9.59263
朱长龄	-9.59781
脚步	-9.59797
戳	-9.59804
目光	-9.59875
后面	-9.59887
站起	-9.59909
相貌	-9.60033
一口气	-9.60039
弯	-9.60183
顺手	-9.60183
了出去	-9.60212
突	-9.60213
朗声道	-9.60289
陈友谅	-9.60315
左臂	-9.60346
宝	-9.60502
眼光	-9.60518
助	-9.60533
抬	-9.60538
爹	-9.6055
狠	-9.60587
谷	-9.60632
现	-9.60633
制	-9.60643
了下去	-9.60692
尖	-9.60705
索	-9.60723
明明	-9.60774
单刀	-9.60884
也有	-9.60919
去罢	-9.60941
婴儿	-9.60975
道人	-9.60988
那也	-9.6108
鞭	-9.61124
望去	-9.61162
十年	-9.6119
带着	-9.61256
爬	-9.6133
手足	-9.61588
计	-9.61592
暗想	-9.61598
向外	-9.61635
了过去	-9.61649
躲	-9.61693
答	-9.61769
率领	-9.61773
下了	-9.61891
群丐	-9.61914
随手	-9.62126
飘	-9.62194
真气	-9.62195
缠	-9.62293
斩	-9.62299
宋远桥	-9.62435
武氏兄弟	-9.62435
站着	-9.62453
形	-9.62611
吹	-9.62621
菜	-9.62661
有时	-9.6273
杯	-9.62735
敬	-9.62742
疼痛	-9.62751
那位	-9.62806
一听	-9.6282
慕容公子	-9.62853
一次	-9.6292
夫妻	-9.6301
一会	-9.63075
显得	-9.63087
害死	-9.631
惊道	-9.63131
切	-9.63156
一枚	-9.63163
显	-9.63189
自当	-9.63215
说是	-9.63252
再来	-9.63396
当世	-9.63415
必定	-9.6352
快快	-9.63539
钢杖	-9.6354
找到	-9.63546
剑术	-9.6356
襄阳	-9.6358
堆	-9.63677
马钰	-9.63721
卷	-9.63732
方丈	-9.63742
数日	-9.63849
将我	-9.63879
从前	-9.63887
的模样	-9.63971
王爷	-9.63977
故	-9.63985
我去	-9.64003
劳德诺	-9.64004
险些	-9.64055
眼下	-9.64073
但若	-9.64123
头发	-9.64134
莫非	-9.64223
胸	-9.64246
怀	-9.64481
小小	-9.64527
孙婆婆	-9.64615
殷天正	-9.64615
转过身来	-9.64622
怎会	-9.64717
愿	-9.64807
茶	-9.64837
左足	-9.64987
俯身	-9.65009
只见她	-9.65046
衣袖	-9.65077
跌	-9.6508
干甚么	-9.65115
场	-9.65125
玄慈	-9.65184
祖千秋	-9.65188
风波恶	-9.65199
钩	-9.65214
房	-9.65216
男子	-9.65258
刻	-9.65289
容易	-9.65473
著	-9.65532
我和	-9.65548
野	-9.6559
俱	-9.65593
遍	-9.65653
联手	-9.6576
低声	-9.65832
但想	-9.65843
岂不是	-9.6587
节	-9.65872
你瞧	-9.65898
块	-9.65964
要我	-9.66034
都已	-9.66082
进去	-9.66097
天鹰教	-9.661
心里	-9.66148
柄	-9.66271
李秋水	-9.66291
铁杖	-9.66322
座	-9.66363
却见	-9.66502
不起	-9.66594
劳	-9.66599
良久	-9.66666
本门	-9.66704
疑心	-9.66749
便有	-9.66802
狂	-9.66827
修习	-9.66846
杨不悔	-9.66856
了一阵	-9.66867
老头子	-9.66873
免得	-9.67034
扶	-9.67173
太过	-9.67428
冰	-9.67497
僧	-9.67505
中间	-9.67585
不断	-9.67614
严	-9.67638
试	-9.67702
有如	-9.67719
慢	-9.6781
抵挡	-9.67863
胡	-9.67881
高僧	-9.67943
抛	-9.67968
动弹不得	-9.67983
巴天石	-9.68019
身受重伤	-9.68057
大石	-9.68083
势必	-9.68123
教我	-9.68161
转头	-9.68214
遭	-9.68231
大大的	-9.6826
拂尘	-9.68264
碰	-9.68281
但见他	-9.68285
七人	-9.68305
占	-9.6832
郭	-9.68326
嵩山	-9.68327
盖	-9.6833
沙	-9.68394
五岳剑派	-9.6841
说起	-9.68488
朱子柳	-9.68507
停	-9.68532
虎	-9.68533
汉	-9.68538
未免	-9.68543
耶律洪基	-9.68554
灭	-9.6866
混	-9.68691
毫不	-9.68703
极为	-9.68712
较	-9.68721
办	-9.68733
室	-9.68796
了一会	-9.68825
也要	-9.68827
隔	-9.68859
放了	-9.68859
百姓	-9.68864
不该	-9.68911
竹	-9.68951
戒	-9.69063
言道	-9.69066
是在	-9.69074
如果	-9.6909
掌法	-9.69104
木高峰	-9.69126
常遇春	-9.69132
落在	-9.69237
贫道	-9.69316
想是	-9.69327
熟	-9.69372
的剑法	-9.6938
高明	-9.69399
身法	-9.69405
仪和	-9.69419
旗	-9.69424
低头	-9.69461
插	-9.69481
想要	-9.69576
闯	-9.69595
这两个	-9.69602
越是	-9.6962
霎时之间	-9.69707
慈恩	-9.69709
又惊又喜	-9.69714
确	-9.69802
竹棒	-9.69942
一眼	-9.69946
割	-9.70025
看到	-9.70038
格	-9.7006
料	-9.70085
银	-9.70108
好生	-9.70117
我可	-9.70122
叫声	-9.70123
于他	-9.70266
今晚	-9.70295
对手	-9.70351
梦	-9.70376
赶到	-9.70384
号令	-9.7045
针	-9.70596
以及	-9.70667
讨	-9.70724
洪七公道	-9.70739
毛	-9.70755
走向	-9.70772
叫作	-9.70782
不明	-9.70789
徒儿	-9.70798
一呆	-9.70804
的言语	-9.70811
交给	-9.70853
兴	-9.70883
镇	-9.70918
运劲	-9.70919
见过	-9.70943
待我	-9.7111
围	-9.71117
号	-9.71161
盘	-9.71191
拍的一声	-9.71236
力道	-9.71287
觉远	-9.71426
察看	-9.71496
四下里	-9.71509
脑袋	-9.71666
摇	-9.71708
了得	-9.71734
另一个	-9.7178
四字	-9.7183
福	-9.719
朱丹臣	-9.71925
谈	-9.71938
惹	-9.72004
周伯通道	-9.72009
一句话	-9.7203
咱俩	-9.72053
定静师太	-9.72058
得到	-9.72071
隐隐	-9.72071
负	-9.72113
”、“	-9.72118
众位	-9.72177
便可	-9.72209
这么说	-9.72273
喝了	-9.72311
激	-9.7233
决不能	-9.7238
难过	-9.72425
萧峰道	-9.72472
一身	-9.72584
十余	-9.72606
心神	-9.72632
星	-9.72695
抽	-9.72716
钟	-9.7275
破绽	-9.72751
径	-9.72781
滑	-9.72828
上山	-9.72845
到后来	-9.7289
毕竟	-9.73015
吓	-9.73075
怨	-9.73139
领	-9.73178
平时	-9.73204
黄老邪	-9.73242
樊一翁	-9.73244
奔出	-9.73246
如何能	-9.73247
一头	-9.73247
坏	-9.73256
四周	-9.73303
几句	-9.73318
犯	-9.73329
你就	-9.73413
好手	-9.73414
死在	-9.73422
飞出	-9.73463
伤势	-9.73563
舍	-9.73634
私	-9.73654
套	-9.73724
那便	-9.73814
老毒物	-9.7387
费	-9.73937
相距	-9.74037
便向	-9.74073
闹	-9.74115
经过	-9.74162
跃出	-9.7419
雄	-9.74236
架	-9.74324
拉着	-9.7433
摸	-9.74354
之内	-9.74383
暗自	-9.74416
手法	-9.74425
音	-9.74445
张松溪	-9.74462
之地	-9.74496
对自己	-9.74573
不要	-9.74583
良	-9.74636
绿	-9.74645
独	-9.7468
救了	-9.74899
那里	-9.74925
圆	-9.7499
微笑	-9.75047
完颜萍	-9.7506
抬起头来	-9.75064
对她	-9.75086
门户	-9.75104
大宋	-9.75158
所以	-9.75196
柔声道	-9.75214
门口	-9.75226
手里	-9.75227
志	-9.75268
三招	-9.7527
靠	-9.75286
先行	-9.75317
性子	-9.75375
见到了	-9.75424
凌厉	-9.75437
亲自	-9.75574
休息	-9.75619
这一剑	-9.75655
侯通海	-9.75681
不理	-9.75688
民	-9.75691
而至	-9.75702
出言	-9.75799
正中	-9.7582
之物	-9.75894
假装	-9.76011
六怪	-9.76027
羊	-9.76118
了过来	-9.76159
拖	-9.76187
非同小可	-9.76218
小姐	-9.76387
好啊	-9.76387
立时便	-9.76463
无力	-9.7655
韩宝驹	-9.76555
认	-9.76576
雕	-9.76582
二十	-9.76643
你不	-9.76696
躬身	-9.76835
两条	-9.76837
去找	-9.76877
一刀	-9.76877
某	-9.76879
凶险	-9.76886
各自	-9.76889
达尔巴	-9.76908
盗	-9.76914
侄儿	-9.76936
岳先生	-9.76938
圣	-9.76977
你再	-9.77012
威力	-9.77079
厉声道	-9.77127
几下	-9.77176
坐着	-9.77193
往往	-9.77234
般的	-9.77476
创	-9.77481
霎时间	-9.77556
上下	-9.77625
不妨	-9.7769
了几下	-9.77723
落地	-9.77727
走去	-9.77759
自然是	-9.77795
要害	-9.78004
薄	-9.78117
包惜弱	-9.78177
殷离	-9.78183
的了	-9.78207
入了	-9.78208
爷	-9.78279
坐下	-9.7829
逼得	-9.78374
全力	-9.78503
一顿	-9.78508
暗暗	-9.78516
服了	-9.78561
宽	-9.78568
带了	-9.78613
砸	-9.78616
已久	-9.78632
线	-9.78655
!’	-9.78749
词	-9.7881
车	-9.78815
之旁	-9.79181
还不	-9.79313
碎	-9.79325
全冠清	-9.79442
周	-9.79461
友	-9.79506
另外	-9.79509
直到	-9.79547
西域	-9.79585
府	-9.79602
宫	-9.7969
高兴	-9.79806
息	-9.79848
少女	-9.79917
二来	-9.79925
讲	-9.79944
听着	-9.79992
挨	-9.79994
聚	-9.79998
才好	-9.80019
赏	-9.80025
母	-9.8007
空智	-9.80082
凶	-9.8009
桃枝仙	-9.80094
丹青生	-9.80102
垂	-9.80159
和她	-9.80291
蒙古兵	-9.80324
身穿	-9.80327
也必	-9.80364
扫	-9.80573
没想到	-9.80646
屋	-9.80732
诸般	-9.80743
神雕	-9.8075
韩小莹	-9.80755
陆大有	-9.80766
论	-9.80889
顾	-9.80963
练成	-9.80992
使得	-9.81064
不去	-9.81096
注	-9.81118
朗声说	-9.81196
两字	-9.81338
推开	-9.81361
了些	-9.81363
急道	-9.81368
挥出	-9.81371
方证大师	-9.81415
汉人	-9.81552
娘	-9.81595
远处	-9.81668
心知	-9.81718
何等	-9.81739
贵	-9.8176
迷	-9.8184
他在	-9.81889
邀	-9.81963
老大	-9.81984
感激	-9.81989
出口	-9.82002
乘机	-9.82033
掉	-9.82123
七八	-9.82171
鼓	-9.82212
退开	-9.82216
双腿	-9.82217
不怕	-9.82267
你想	-9.82297
元	-9.82311
那大汉	-9.82376
顺	-9.82464
赴	-9.82545
面目	-9.82576
矮	-9.82609
摇头	-9.82629
最好	-9.8265
搜	-9.82671
莫大先生	-9.82698
苏星河	-9.82724
还要	-9.82772
不来	-9.82789
小王爷	-9.82801
规矩	-9.82805
亮	-9.82822
本帮	-9.8286
请教	-9.82874
不足	-9.83118
属	-9.83145
江南	-9.83161
数十	-9.83222
洗	-9.83285
岳不群道	-9.83309
昨晚	-9.83351
醉	-9.83394
周姑娘	-9.83395
纵马	-9.83426
荡	-9.83546
相会	-9.83584
在一旁	-9.83612
陆	-9.8364
五个	-9.83773
决计	-9.83822
英雄好汉	-9.83877
必有	-9.83939
恩	-9.83953
一拍	-9.83971
第	-9.83982
抢上	-9.84102
是要	-9.84119
高人	-9.84133
纸	-9.84134
壁	-9.84182
方能	-9.84241
大声叫道	-9.84248
侧	-9.84338
泥	-9.84406
玄	-9.84431
君	-9.84436
抱起	-9.84469
张翠山道	-9.84548
契丹人	-9.84586
教他	-9.84588
不明白	-9.8461
传来	-9.84632
临	-9.84687
便能	-9.84691
毒药	-9.84691
那少女道	-9.84706
台	-9.84719
一样	-9.84736
围攻	-9.8479
涌	-9.84799
固	-9.84832
味	-9.84848
的内力	-9.84946
沙通天	-9.85035
的人物	-9.8507
舞	-9.85114
永远	-9.85129
又不是	-9.8518
两只	-9.85189
任教主	-9.8521
邪	-9.85271
随着	-9.85293
进了	-9.85344
四名	-9.85345
公孙谷主	-9.85352
忽必烈	-9.85355
张君宝	-9.85363
你自己	-9.85365
鹤笔翁	-9.85378
你若	-9.85393
同门	-9.85512
静	-9.85616
也无	-9.85666
我在	-9.85784
右足	-9.85808
就要	-9.85832
桃花岛	-9.85837
好不好	-9.85857
要他	-9.85887
是他	-9.85891
透	-9.85928
不想	-9.8599
在哪里	-9.86011
相互	-9.86037
小姑娘	-9.86072
试试	-9.86074
了几	-9.86074
佛	-9.86103
辞	-9.86209
林平之道	-9.86248
不在	-9.86266
魔	-9.86287
防	-9.86308
父	-9.86349
移	-9.86368
互相	-9.86384
额头	-9.86401
怎生	-9.86403
快步	-9.86473
样	-9.86509
断了	-9.86559
出招	-9.86612
师兄弟	-9.86698
尾	-9.86716
辟邪剑谱	-9.86727
薛神医	-9.86741
拚命	-9.86754
西夏	-9.86763
凝神	-9.86771
官兵	-9.86818
恭恭敬敬的	-9.86837
难得	-9.86965
忽道	-9.86989
系	-9.87064
下面	-9.87178
敌手	-9.87214
未曾	-9.87278
望了一眼	-9.8731
又何必	-9.87361
恼怒	-9.87421
黄钟公	-9.87429
道理	-9.87499
多半是	-9.87509
擒	-9.87657
在空中	-9.87679
溜	-9.8771
每一	-9.87715
喷	-9.87723
保	-9.87793
汤	-9.87923
既是	-9.87981
华筝	-9.88018
本领	-9.88056
脸上一红	-9.88084
说来	-9.88103
且慢	-9.8813
她是	-9.88198
总算	-9.88287
你快	-9.88565
决意	-9.88582
片刻之间	-9.88591
跪下	-9.88661
自幼	-9.88699
程瑶迦	-9.88801
飞身	-9.8885
片	-9.8891
打开	-9.88933
救人	-9.88933
一派	-9.89028
得多	-9.89164
行走	-9.89194
勉强	-9.89213
江	-9.89278
丝	-9.89388
阻	-9.89419
让我	-9.89474
公主	-9.89513
挤	-9.89515
桃花仙	-9.89526
犹似	-9.89538
对你	-9.89563
印	-9.89588
腹	-9.89613
偏偏	-9.89692
容貌	-9.89727
好看	-9.8975
象	-9.8976
诸人	-9.89773
祖	-9.89802
种种	-9.89808
那少年	-9.89931
互	-9.89963
裂	-9.90074
一家	-9.90111
局	-9.90121
十八	-9.90144
拿起	-9.90201
大丈夫	-9.90297
有了	-9.90372
续道	-9.90503
和你	-9.90605
了不起	-9.9061
知道了	-9.90658
心意	-9.90695
世间	-9.90697
广	-9.90894
绝无	-9.90895
朱九真	-9.90945
都大锦	-9.90951
徐长老	-9.90954
中土	-9.90999
张教主	-9.91036
腿上	-9.91063
停步	-9.91084
遇上	-9.91099
机	-9.91133
之势	-9.91241
傻	-9.91267
寺中	-9.91279
小腹	-9.91293
已极	-9.91317
谁都	-9.91411
你去	-9.91492
在这儿	-9.91508
胡涂	-9.91514
得意	-9.91528
而下	-9.91578
疑	-9.91602
甲	-9.91623
我想	-9.91629
算是	-9.91723
郭襄道	-9.9173
识	-9.91761
打架	-9.91837
鞑子	-9.91977
脱身	-9.91979
事情	-9.91979
拨	-9.92016
将出来	-9.92028
积	-9.92055
剑谱	-9.92066
名字	-9.92111
说甚么	-9.92127
雨	-9.92169
年轻	-9.92194
还在	-9.92196
一手	-9.92211
一闪	-9.92239
全真派	-9.92251
表哥	-9.92253
便似	-9.92366
宝刀	-9.92426
一道	-9.9245
明日	-9.92472
之所	-9.92505
柔	-9.92539
不管	-9.9254
心中一凛	-9.92564
情势	-9.92596
那女童	-9.92635
刀剑	-9.9268
盼	-9.927
春	-9.92734
竟不	-9.92766
密	-9.92837
成为	-9.92877
向上	-9.92898
本已	-9.92947
咱	-9.92979
烂	-9.93068
油	-9.9307
歇	-9.93084
这孩子	-9.93112
跃上	-9.93113
两声	-9.93148
钻	-9.93179
挂	-9.93222
姊夫	-9.9334
才道	-9.93538
查	-9.93548
内劲	-9.93562
丁敏君	-9.93721
悲	-9.93781
哲别	-9.93842
马光佐	-9.93851
泪水	-9.93855
果	-9.9386
施主	-9.93874
胡闹	-9.93876
三字	-9.9392
契丹	-9.93929
的好	-9.93939
起了	-9.93972
站	-9.93992
惨	-9.93996
短剑	-9.94099
待会	-9.94146
手持	-9.9415
列	-9.94169
醒	-9.94173
毒蛇	-9.94174
了么	-9.94176
所在	-9.94195
抢到	-9.94211
坚	-9.94245
客店	-9.94295
再行	-9.9432
不知道	-9.9434
伤人	-9.94352
补	-9.94376
客气	-9.944
点了	-9.94501
.	-9.94586
罗	-9.94588
行礼	-9.94589
洪凌波	-9.94593
人影	-9.94621
还能	-9.94645
山洞	-9.9466
一天	-9.94675
金兵	-9.94683
落入	-9.94715
遗	-9.94717
冲儿	-9.94761
店	-9.9479
华	-9.94805
任何	-9.94915
存	-9.94943
奔去	-9.94986
擦	-9.94987
手脚	-9.94989
思索	-9.95026
数丈	-9.95083
松树	-9.95102
也未必	-9.95176
不知如何	-9.95271
令狐公子	-9.95357
!”“	-9.95428
剧痛	-9.95499
事先	-9.9551
生了	-9.95522
赞	-9.95575
拔出	-9.95617
老僧	-9.95623
倚天剑	-9.95655
决无	-9.9567
拂	-9.95672
这事	-9.9578
眉	-9.95816
落下	-9.95832
之命	-9.9592
赵钱孙	-9.95945
几乎	-9.95972
名叫	-9.96082
定逸	-9.96095
果然是	-9.96097
掌心	-9.96141
胡子	-9.96158
十二	-9.96253
度	-9.96296
折断	-9.96327
拿了	-9.9633
内息	-9.96362
迟	-9.96384
反正	-9.96493
不小	-9.96646
招式	-9.96669
卖	-9.96717
人众	-9.96755
无可	-9.96764
多少	-9.96786
盼望	-9.96799
急奔	-9.9682
抵御	-9.96849
强敌	-9.96863
岳	-9.96871
仇	-9.96915
在江湖上	-9.96918
的穴道	-9.9694
顺着	-9.9697
颈中	-9.97015
眼泪	-9.97037
向左	-9.97073
降龙十八掌	-9.97081
皇上	-9.97087
罢了	-9.9712
剧毒	-9.9718
窗	-9.97201
谷中	-9.97285
困	-9.97289
在她	-9.9731
可不是	-9.9732
杀他	-9.97346
朱	-9.9735
将这	-9.97401
板	-9.97473
镇南王	-9.97475
那老僧	-9.97486
嫁	-9.97488
拜见	-9.97576
句	-9.97607
赤	-9.9761
陆庄主	-9.97614
双雕	-9.97621
尼姑	-9.97663
后心	-9.97667
怒气	-9.97704
不忍	-9.97732
...	-9.9776
打狗棒法	-9.97808
两步	-9.97821
便欲	-9.97849
将过来	-9.97942
才知	-9.97946
说的	-9.97956
神态	-9.9807
骗	-9.9812
之手	-9.98121
放心	-9.98167
主意	-9.9821
赶来	-9.9824
点点头	-9.9826
嫌	-9.98274
学得	-9.98338
长矛	-9.98385
兵器	-9.98439
提防	-9.98471
偷袭	-9.98518
向着	-9.98557
被人	-9.98557
知她	-9.98595
欺侮	-9.98621
他身上	-9.98639
增	-9.98856
史	-9.98907
蒙古人	-9.99065
含	-9.99116
苦头陀	-9.99188
加害	-9.99221
追赶	-9.99223
若有	-9.9925
精神	-9.99293
沉重	-9.99312
一阳指	-9.99459
张口	-9.99506
谷主	-9.99507
已知	-9.99507
几声	-9.99532
丁	-9.99554
男人	-9.99564
过了良久	-9.99616
之士	-9.9962
这就	-9.99645
将下来	-9.99671
气息	-9.99706
各处	-9.99742
转过	-9.99777
你既	-9.99847
呸	-9.99911
弃	-9.99915
武敦儒	-9.99929
波	-9.99932
逝世	-9.99941
张真人	-9.99944
(3)	-9.99962
将那	-9.99986
跟你说	-10.0005
累	-10.001
便了	-10.001
不觉	-10.0011
爷爷	-10.0011
拆	-10.0015
灰	-10.0023
声中	-10.0025
太师父	-10.0026
是甚么	-10.0027
火把	-10.0029
治伤	-10.0029
教众	-10.0033
并肩	-10.0043
布袋	-10.0046
这种	-10.0052
于我	-10.0053
瞧得	-10.0055
美貌	-10.0058
冒	-10.0072
哪一个	-10.0072
祸	-10.0076
杨大哥	-10.0077
以免	-10.0081
一套	-10.0081
又说	-10.0085
掷出	-10.0086
可就	-10.0097
一百	-10.0101
一路上	-10.0105
轮	-10.0111
若要	-10.0112
王重阳	-10.0115
重伤	-10.0115
每人	-10.0119
师徒	-10.0123
不行	-10.0127
淡	-10.0129
取胜	-10.0129
我若	-10.0133
耗	-10.0135
品	-10.0137
破了	-10.0138
大门	-10.0142
亡	-10.0142
仗	-10.0148
忌惮	-10.015
辟邪剑法	-10.0152
咳嗽	-10.0153
之辈	-10.0153
的小	-10.0161
瘦	-10.0171
一副	-10.0173
萧	-10.0184
圣火令	-10.0184
不绝	-10.0186
开了	-10.019
伏在	-10.0192
左首	-10.0194
老夫	-10.0197
浅	-10.0204
塞	-10.0206
这一来	-10.0207
赐	-10.0209
欺	-10.0213
侍	-10.0216
焦急	-10.0222
好罢	-10.0224
本是	-10.0232
桃干仙	-10.0232
顿了一顿	-10.0232
曲非烟	-10.0233
空闻	-10.0235
这场	-10.0235
便想	-10.0237
不上	-10.0243
的长剑	-10.0243
酒杯	-10.0244
好在	-10.0244
僧人	-10.0249
也不敢	-10.0257
少了	-10.0257
出声	-10.0258
老者	-10.0259
取了	-10.026
遇上了	-10.0268
不致	-10.0269
公子爷	-10.0279
谋	-10.0285
天下英雄	-10.0286
买	-10.0288
抗	-10.029
你老人家	-10.029
烟	-10.0297
你先	-10.0298
奋力	-10.0314
乔帮主	-10.0314
察觉	-10.0318
河	-10.0325
大叫一声	-10.0326
一个个	-10.033
半截	-10.0333
经书	-10.0345
又要	-10.0353
大笑	-10.0355
向西	-10.0357
脾气	-10.0357
可不能	-10.0365
地方	-10.0372
肩	-10.0373
逆	-10.0377
孔	-10.0384
专	-10.0385
采	-10.0387
泰山	-10.0388
也不是	-10.039
怪异	-10.0393
郝大通	-10.0393
全金发	-10.0394
白世镜	-10.0396
脚步声响	-10.0396
一团	-10.0406
有点	-10.0409
这可	-10.0411
烈	-10.0418
湖	-10.0419
宋	-10.0422
招架	-10.0423
王语嫣道	-10.0429
丧	-10.0435
刺去	-10.0444
跟她	-10.0446
的尸身	-10.0452
一晃	-10.0452
了不少	-10.0454
中毒	-10.046
颈	-10.0473
护	-10.0476
烦恼	-10.0476
何足道	-10.0476
一来	-10.0477
(4)	-10.0478
一辈子	-10.0478
迟疑	-10.0478
今后	-10.0484
猛听得	-10.0484
得住	-10.0484
暗算	-10.0501
服侍	-10.0502
或是	-10.051
取过	-10.051
琴	-10.0515
缝	-10.0519
甚么事	-10.0531
毁	-10.0535
继续	-10.0536
更无	-10.0536
好玩	-10.054
将自己	-10.054
快走	-10.0541
不服	-10.0542
神雕侠	-10.0543
风声	-10.0546
狼狈	-10.0555
铺	-10.0556
匆匆	-10.0558
江南六怪	-10.0559
段天德	-10.0559
杀死	-10.0565
相对	-10.0571
送到	-10.0574
相似	-10.0575
几步	-10.058
▁是	-10.0589
桥	-10.059
但她	-10.0594
岛	-10.0596
甚多	-10.0597
集	-10.0599
灵鹫宫	-10.0614
的神色	-10.0618
阿	-10.0621
决不会	-10.0624
看了	-10.0631
伯父	-10.0641
商量	-10.0643
那村女	-10.0643
师太	-10.0646
捏	-10.065
老前辈	-10.0651
教你	-10.066
便知	-10.0667
床	-10.0668
干什么	-10.0674
这位姑娘	-10.0677
不知他	-10.0677
又见	-10.0678
搬	-10.0682
卧	-10.0689
问起	-10.069
呼叫	-10.0693
人人都	-10.0695
铁链	-10.0696
抓住了	-10.0702
今天	-10.0716
左肩	-10.0718
跟随	-10.072
又将	-10.072
傻蛋	-10.0721
绕	-10.0721
浓	-10.0721
是为了	-10.0722
自尽	-10.0724
知晓	-10.0726
知觉	-10.0728
赵姑娘	-10.0729
机关	-10.0729
父子	-10.0734
没了	-10.0737
回身	-10.0741
碰到	-10.0742
西毒	-10.0743
请问	-10.0745
淡淡	-10.0747
三哥	-10.075
一碗	-10.0755
而过	-10.0763
瞎	-10.0764
地道	-10.0766
展开	-10.077
很是	-10.078
自来	-10.0787
桌上	-10.0793
再无	-10.0804
尴尬	-10.0807
握	-10.0808
向北	-10.0809
秦红棉	-10.081
生死符	-10.081
睁开眼来	-10.0811
莫声谷	-10.0811
左子穆	-10.0811
黄眉僧	-10.0812
好啦	-10.0812
从怀中取出	-10.0814
约莫	-10.0814
林师弟	-10.0814
数十年	-10.0818
峨嵋	-10.0818
真正	-10.0826
不自禁的	-10.0833
打在	-10.0834
是非	-10.0836
参	-10.0839
医	-10.0842
脱手	-10.0842
第四	-10.0843
只可惜	-10.0843
点头	-10.0848
恼	-10.085
殿	-10.0851
三名	-10.0854
忧	-10.0856
一言	-10.0858
只想	-10.0858
走罢	-10.0862
大都	-10.0863
不幸	-10.0863
打听	-10.0873
瞧他	-10.0874
赌	-10.0881
残	-10.0883
便往	-10.0884
叶	-10.0885
隐	-10.0885
要杀	-10.0893
派人	-10.0893
飞舞	-10.0898
大厅	-10.0899
只能	-10.0902
万分	-10.0903
小红马	-10.0906
慕容博	-10.0909
晃	-10.0911
的招数	-10.0911
二字	-10.0915
要你	-10.0916
已在	-10.0918
之理	-10.0925
女人	-10.0926
既已	-10.0928
不安	-10.093
钉	-10.0933
又已	-10.0933
苦笑	-10.0935
客人	-10.0935
握住	-10.0937
桌	-10.0938
达	-10.0942
从来没	-10.0942
造	-10.0945
智	-10.0948
船上	-10.0951
忙问	-10.0953
不识	-10.0955
而上	-10.0955
陪	-10.0955
了一	-10.0971
连连	-10.0974
摔倒	-10.0975
诗	-10.0976
搭	-10.0978
不语	-10.0979
扣	-10.0979
要想	-10.0979
的女儿	-10.0981
见识	-10.0982
之徒	-10.0999
不敢再	-10.1
君子	-10.1001
威	-10.1002
钟夫人	-10.1008
要将	-10.101
有意	-10.1011
要去	-10.1013
洞中	-10.1018
一动	-10.1021
中有	-10.1027
前后	-10.1028
绳索	-10.1037
升	-10.1041
银子	-10.1049
惭愧	-10.1052
这少年	-10.1054
声势	-10.1054
走开	-10.1055
离去	-10.1057
丘处机道	-10.1067
风清扬	-10.1069
便请	-10.1076
石壁	-10.1082
武功高强	-10.1082
可怜	-10.1082
鸣	-10.1085
变成了	-10.1086
相交	-10.1088
一半	-10.1098
打死	-10.1102
与郭靖	-10.1108
贵派	-10.1109
欢	-10.1114
柱	-10.1116
明白了	-10.1117
连声	-10.1124
钢	-10.1128
岩石	-10.113
一双	-10.1132
抬头	-10.1136
见面	-10.1141
素来	-10.1145
最是	-10.1145
终身	-10.1148
忘	-10.1152
乖	-10.1153
公冶乾	-10.1157
瞧了一眼	-10.1157
定闲师太	-10.1158
危险	-10.1158
定逸师太	-10.1158
驰	-10.1159
树枝	-10.1162
而起	-10.1165
当晚	-10.1167
之一	-10.1173
对面	-10.1174
着地	-10.1174
招呼	-10.1177
他心中	-10.1182
重大	-10.1186
以来	-10.1192
喉头	-10.1196
黑暗中	-10.1197
六脉神剑	-10.1201
二位	-10.121
不休	-10.1218
大理国	-10.1232
抖	-10.1233
田	-10.1237
害死了	-10.1238
折磨	-10.1246
晃动	-10.1249
袋	-10.125
之术	-10.1254
随口	-10.1256
排	-10.1257
合力	-10.126
对不起	-10.126
只感	-10.1261
突觉	-10.1268
了她	-10.1268
一行人	-10.1272
奸	-10.1275
掠过	-10.1275
找寻	-10.1277
了罢	-10.1278
历	-10.1282
精妙	-10.1286
闭	-10.1287
井	-10.129
之至	-10.1299
能够	-10.1308
送了	-10.1311
拳脚	-10.1314
追来	-10.1317
迅捷	-10.1324
那也是	-10.1325
阴毒	-10.1326
凝	-10.1327
紫	-10.1329
处处	-10.1329
又在	-10.1331
或许	-10.1332
先后	-10.1333
耳朵	-10.1335
竟尔	-10.1336
经脉	-10.1338
靖儿	-10.1338
大和尚	-10.1339
方位	-10.134
山谷	-10.1344
家伙	-10.1347
见杨过	-10.1352
忍	-10.1368
格格	-10.1376
侧头	-10.138
尺	-10.1381
好人	-10.1384
轻声	-10.1388
你还	-10.1404
安排	-10.1405
殷	-10.1406
使劲	-10.1408
爪	-10.1413
配	-10.1415
依言	-10.1417
今	-10.1418
催	-10.1418
丘	-10.1422
吓了一跳	-10.1424
司空玄	-10.1425
田兄	-10.1426
原来他	-10.1428
门派	-10.1429
出于	-10.1432
起身	-10.1433
向我	-10.1435
尘	-10.1436
认输	-10.1444
大胆	-10.1448
左腿	-10.1454
牙齿	-10.1459
令他	-10.1461
浑	-10.1464
舟	-10.147
猜	-10.1471
我没	-10.1471
谁也	-10.1479
抓起	-10.1479
恶人	-10.1492
术	-10.1493
斤	-10.1494
师门	-10.1495
候	-10.1496
拳法	-10.1496
明明是	-10.1498
男女	-10.1503
便宜	-10.1504
迅速	-10.1508
商	-10.1509
从来不	-10.1509
船头	-10.1511
可说	-10.1516
嘛	-10.1516
笑嘻嘻的	-10.1516
表妹	-10.1518
秘	-10.1519
穷	-10.1522
猛地	-10.1522
的本事	-10.1523
挥动	-10.1531
面门	-10.1532
扶着	-10.1532
的掌力	-10.1538
迫	-10.1548
早知	-10.1551
外面	-10.1553
本寺	-10.1558
衡山	-10.1559
鸟	-10.1563
环	-10.1571
坏了	-10.1576
老爷	-10.1581
帮众	-10.1582
了半晌	-10.1582
心中却	-10.1584
楼	-10.1586
语音	-10.1588
锤	-10.1593
拥	-10.1597
英	-10.1597
镖	-10.1607
肌肤	-10.1607
询问	-10.1609
掠	-10.1609
迎面	-10.1612
夹	-10.1615
耳听得	-10.1615
不等	-10.1617
女弟子	-10.162
号称	-10.162
相信	-10.1621
件	-10.1623
免	-10.1626
扇	-10.1631
观看	-10.1639
向下	-10.1642
胸中	-10.1646
但听	-10.1646
他知	-10.1649
抹	-10.1662
放在心上	-10.1666
小兄弟	-10.1666
挡在	-10.1667
到底是	-10.1667
害人	-10.1668
那汉子	-10.1687
凉	-10.1693
快活	-10.1694
面面相觑	-10.1701
来势	-10.1701
先师	-10.1702
一跃	-10.1705
那道人	-10.1708
半分	-10.1724
误	-10.1727
沉吟	-10.1729
耳中	-10.1734
本就	-10.1738
倾	-10.1739
劫	-10.1744
一带	-10.1747
辽国	-10.1748
告	-10.1748
旨	-10.1749
执	-10.1754
提到	-10.1755
墓	-10.1756
失了	-10.1757
层	-10.1758
境	-10.1759
扮	-10.1768
出来的	-10.1775
轻易	-10.1776
现身	-10.1777
说我	-10.1783
的女子	-10.1784
恶斗	-10.1785
宿	-10.1786
愁	-10.1786
举手	-10.1787
浮	-10.1788
可是他	-10.179
湿	-10.1793
阮星竹	-10.1793
待他	-10.1793
温柔	-10.1793
江南七怪	-10.1794
扶起	-10.1794
四肢	-10.1795
的情景	-10.1796
岁	-10.1802
尸	-10.1807
只是他	-10.1817
撕	-10.1817
甘	-10.1817
我先	-10.1833
道路	-10.1842
邓百川	-10.1842
的名头	-10.1848
暗叫	-10.185
定会	-10.1852
不迟	-10.1854
到此处	-10.1857
一门	-10.1857
习	-10.1858
热闹	-10.1859
四位	-10.186
佳	-10.1861
备	-10.1864
杀我	-10.1866
怎么会	-10.1866
▁‘	-10.1867
不能再	-10.1871
救我	-10.1872
走上	-10.1875
泪	-10.1879
魂	-10.1885
余观主	-10.1887
山峰	-10.1888
索性	-10.1889
剑刃	-10.1889
诧异	-10.189
长袍	-10.1892
气恼	-10.1895
吃饭	-10.1896
昔日	-10.1897
几次	-10.1899
双剑	-10.1902
见到他	-10.1917
数次	-10.1937
那女郎	-10.1938
哪有	-10.194
这时候	-10.1943
携	-10.1946
三弟	-10.1951
胜了	-10.1954
的法门	-10.196
粉	-10.196
也只	-10.196
歌	-10.1961
稳	-10.1961
的高手	-10.1963
有趣	-10.1964
净	-10.1972
三分	-10.1977
跟我说	-10.1979
跟他们	-10.1979
糟糕	-10.198
为他	-10.198
全真七子	-10.1983
更不	-10.1983
灵智上人	-10.1983
星宿老怪	-10.1983
青袍客	-10.1984
段郎	-10.1984
挡架	-10.1984
身材	-10.1986
平一指	-10.1987
仔细	-10.1987
以前	-10.199
无论如何	-10.1995
跑	-10.1996
慕容复道	-10.1999
拔剑	-10.2002
一挥	-10.2002
剑柄	-10.2003
胜过	-10.2005
反击	-10.2007
童	-10.2013
士	-10.2034
亏	-10.2038
答应了	-10.204
沉吟道	-10.2047
令狐冲心想	-10.2052
笑话	-10.2056
自身	-10.2056
有一	-10.2062
多年	-10.2062
羞	-10.2062
物事	-10.2066
说完	-10.2068
器	-10.2069
坛	-10.2074
大汉	-10.2077
曾听	-10.2078
可真	-10.2078
壮	-10.2079
南希仁	-10.208
房门	-10.208
上官云	-10.208
无耻	-10.208
圣姑	-10.2081
星宿派	-10.2082
元兵	-10.2083
医治	-10.2089
开口	-10.2092
救命	-10.2093
一时之间	-10.2096
大大	-10.2098
辨	-10.2102
鼻	-10.2104
之余	-10.2105
侠	-10.2111
变成	-10.2112
打扮	-10.2116
营	-10.2116
说出	-10.2116
窗外	-10.2117
肚子	-10.2119
三僧	-10.2126
递	-10.2135
你怎么	-10.2136
原本	-10.2139
丹田	-10.2142
翻身	-10.2146
使用	-10.2148
每日	-10.2155
李	-10.2157
天竺	-10.217
眼见他	-10.2171
商议	-10.2176
阿弥陀佛	-10.2177
使剑	-10.2178
方始	-10.2178
衡山派	-10.2179
之气	-10.218
数里	-10.2187
练到	-10.2194
等三人	-10.2196
那书生	-10.2199
抱拳	-10.2201
前去	-10.221
州	-10.2213
感到	-10.2213
不妙	-10.2217
小尼姑	-10.2219
有此	-10.2239
数招	-10.2241
谭婆	-10.2241
拾起	-10.2244
屋顶	-10.2246
丈	-10.2249
真相	-10.2258
脉	-10.2261
贤	-10.2262
撒	-10.2268
挖	-10.227
甫	-10.2272
寿	-10.2273
载	-10.2273
干净	-10.2274
谭公	-10.2274
一模一样	-10.2274
菩萨	-10.2275
司马林	-10.2275
彭莹玉	-10.2275
软鞭	-10.2276
少林僧	-10.2277
呆	-10.2278
西首	-10.2284
出现	-10.2284
另一	-10.2285
臣	-10.2285
拿着	-10.229
铁掌帮	-10.2292
北方	-10.2292
不由自主的	-10.2294
昆仑派	-10.2302
骑马	-10.2304
旁边	-10.2304
过得	-10.2304
有余	-10.2309
杨过心想	-10.231
说不出的	-10.2317
素知	-10.2323
正想	-10.2328
桃	-10.2329
好笑	-10.2331
这套	-10.2354
赞道	-10.2355
不大	-10.2356
树上	-10.236
手中长剑	-10.236
不像	-10.2361
上面	-10.2362
挣扎	-10.2365
狠辣	-10.2372
牢牢	-10.2372
惊惶	-10.2373
西华子	-10.2374
神智	-10.2376
仰	-10.2379
那老人	-10.238
饮酒	-10.238
领教	-10.2382
从未见过	-10.2383
尽管	-10.2385
累得	-10.2395
底下	-10.2396
均已	-10.2405
你便	-10.2411
十倍	-10.2415
突见	-10.2416
其后	-10.2427
出掌	-10.2429
所学	-10.2434
浸	-10.2436
插入	-10.2442
晕了过去	-10.2444
当的一声	-10.2456
里面	-10.2459
深谷	-10.2469
殊	-10.2469
各有	-10.2471
郭伯伯	-10.2471
延	-10.2473
杨莲亭	-10.2475
老是	-10.2477
掩	-10.2484
长大	-10.2484
。’”	-10.2484
城中	-10.2489
健	-10.2491
听见	-10.2494
这招	-10.2495
疗伤	-10.2511
暴	-10.2515
承	-10.2516
他虽	-10.2522
而前	-10.2528
给他们	-10.2528
古墓	-10.2529
暂且	-10.2529
让你	-10.2529
山上	-10.2533
佛门	-10.2534
咽喉	-10.2536
双脚	-10.2536
走得	-10.2541
降	-10.2546
老道	-10.2547
悟	-10.2551
妹	-10.2552
各派	-10.2554
弓	-10.2555
这两人	-10.2556
衣襟	-10.256
纵跃	-10.256
联	-10.2566
难道你	-10.2567
不胜	-10.2568
大不相同	-10.2573
爸爸	-10.2574
始终不	-10.2575
吊	-10.2575
投降	-10.2576
阵法	-10.2576
谈论	-10.2577
空性	-10.2578
诸位	-10.2579
一处	-10.258
毙命	-10.2581
插口道	-10.2584
豪	-10.2591
千万	-10.2596
匹	-10.2599
再加上	-10.2599
着实	-10.2601
份	-10.2605
念头	-10.2608
提气	-10.261
打我	-10.2611
也会	-10.2611
退出	-10.2613
舌	-10.2613
棍	-10.2615
大人	-10.2616
屋中	-10.2619
便去	-10.2619
你可	-10.2622
将你	-10.2622
梁	-10.2624
的说话	-10.2625
所说	-10.2626
真经	-10.263
该死	-10.2647
太阳	-10.2647
庙	-10.2656
死人	-10.2662
奏	-10.2665
下的	-10.2667
凝视	-10.2668
他身子	-10.267
极大	-10.2671
刘	-10.2674
寸	-10.2675
认得	-10.2677
蜈蚣	-10.2677
(5)	-10.2679
岂非	-10.2679
周身	-10.2682
奔跑	-10.2682
一击	-10.2683
想必	-10.2685
渔网	-10.2686
上一	-10.269
丐帮中	-10.2691
扳	-10.2692
甩	-10.2695
手段	-10.2697
宁	-10.2697
那渔人	-10.2699
示	-10.2701
抢着	-10.2702
只待	-10.2704
便会	-10.2705
绳	-10.2709
仪清	-10.2713
火焰	-10.272
自称	-10.2722
泼	-10.2723
担	-10.2723
斜身	-10.2726
院	-10.2728
减	-10.2732
情花	-10.2739
誓	-10.2741
饶	-10.2743
多了	-10.2744
传了	-10.2744
这日	-10.2748
那知	-10.2749
皇	-10.275
洪	-10.2751
一会儿	-10.2752
我再	-10.2758
不妥	-10.2759
练剑	-10.2764
鼎	-10.277
赖	-10.2773
对头	-10.2774
牌	-10.2774
一推	-10.2776
痒	-10.2777
沾	-10.2779
满脸通红	-10.278
飞起	-10.278
彭长老	-10.278
巧妙	-10.278
谢大侠	-10.2781
尊师	-10.2781
出家	-10.2784
化解	-10.2801
抛下	-10.2806
无穷	-10.2808
瞧见	-10.2809
迎接	-10.2813
朗声	-10.2816
更有	-10.2818
岩	-10.2818
微一	-10.283
盟主	-10.2843
在我	-10.2845
他想	-10.2846
平平	-10.2851
五指	-10.2857
村	-10.2858
姊妹	-10.2859
不着	-10.2869
陈	-10.2873
胸前	-10.2874
真有	-10.2874
柴	-10.2878
鹿	-10.2881
剥	-10.2883
七伤拳	-10.2883
陛下	-10.2883
崔百泉	-10.2884
令狐兄	-10.2885
枚	-10.2885
醒转	-10.2887
移动	-10.2891
他妈的	-10.2893
几招	-10.2896
对着	-10.2896
不出来	-10.2897
攻击	-10.2898
那便是	-10.2899
又向	-10.2908
坏人	-10.2908
收拾	-10.2916
问他	-10.292
支	-10.2923
挺剑	-10.2924
但这	-10.2927
次日	-10.293
胆敢	-10.2932
藏在	-10.2935
再看	-10.2937
他胸口	-10.2938
驾	-10.2952
看时	-10.2955
听来	-10.2955
行动	-10.2962
细细	-10.2963
也不用	-10.2966
丝毫不	-10.2966
这番话	-10.2967
汗	-10.2968
速	-10.297
整	-10.2977
常人	-10.2979
相抗	-10.2981
乌	-10.2984
成亲	-10.2984
大踏步	-10.2984
演	-10.2985
翠	-10.2986
此言	-10.2987
损	-10.2988
费彬	-10.2988
班淑娴	-10.2989
玄寂	-10.2989
敲	-10.299
奔驰	-10.299
戴	-10.2992
惊叫	-10.2995
阳教主	-10.2997
过招	-10.2997
一部	-10.2999
杨过笑道	-10.3
两个人	-10.3001
心思	-10.3001
箫声	-10.3003
又怎能	-10.3005
他见	-10.3009
两根	-10.3011
的身子	-10.3015
刀法	-10.3015
黄金	-10.3033
鼻子	-10.3036
乡	-10.3041
伸手在	-10.3054
悔	-10.3056
擒住	-10.3057
击在	-10.3058
毫无	-10.306
缘	-10.3063
林中	-10.3068
店小二	-10.3069
武功了得	-10.3074
竟似	-10.3074
瞎子	-10.3075
那公子	-10.3075
娇	-10.3076
放开	-10.3081
彼	-10.3084
米	-10.3085
罚	-10.3091
驶	-10.3093
钦佩	-10.3096
游迅	-10.3096
周芷若道	-10.3098
我义父	-10.3099
隐居	-10.31
好汉	-10.3108
而是	-10.3114
倚	-10.3115
武士	-10.3116
务	-10.3117
杀你	-10.3118
瞧你	-10.3119
了半天	-10.3121
袭	-10.3125
出门	-10.3126
量	-10.3135
程	-10.3136
痛得	-10.3136
心中一动	-10.3137
不算	-10.3141
为师	-10.3146
可是我	-10.3151
拉住	-10.3154
你来	-10.316
禀报	-10.3164
打死了	-10.3165
陡	-10.3182
都说	-10.3183
未能	-10.3184
侧身	-10.3185
展	-10.3185
也得	-10.3187
这一日	-10.3187
慰	-10.3198
黄药师道	-10.32
御	-10.32
狼	-10.3201
朝廷	-10.3202
又再	-10.3203
张五侠	-10.3204
耳边	-10.3204
任大小姐	-10.3204
有关	-10.3206
危难	-10.3207
腹中	-10.3211
门人	-10.3213
大奇	-10.3214
岂	-10.3216
岛上	-10.3216
却无	-10.3218
这不是	-10.3219
业	-10.322
帮手	-10.3224
你不用	-10.3229
皱眉道	-10.3229
运功	-10.3231
伤害	-10.3231
使力	-10.3235
这小姑娘	-10.3239
建	-10.3242
披	-10.3248
麻	-10.3257
宁可	-10.3258
的朋友	-10.3258
表	-10.3259
一分	-10.327
提着	-10.3277
笑容	-10.3279
胸膛	-10.3281
时时	-10.3282
厅	-10.3283
责	-10.3285
路上	-10.3285
一拂	-10.3286
抵	-10.3287
身份	-10.3288
克	-10.3291
作为	-10.3292
单是	-10.3293
武当山	-10.3297
辩	-10.33
来得	-10.3305
烦	-10.3305
当下将	-10.3306
滴	-10.3306
金轮	-10.3306
的脸	-10.3308
一件事	-10.3308
叫她	-10.3308
竟将	-10.3308
一间	-10.3311
冤枉	-10.3311
室中	-10.3313
令狐掌门	-10.3313
隐瞒	-10.3314
竟也	-10.3315
数尺	-10.3315
之类	-10.3316
身畔	-10.3317
抱了	-10.3318
▁人	-10.3321
腾	-10.3326
嘴巴	-10.333
石壁上	-10.3333
身手	-10.3333
片刻间	-10.3333
共有	-10.3334
每次	-10.3334
我来	-10.3335
万万	-10.3337
帝	-10.3337
直至	-10.3341
生性	-10.3341
吐露	-10.3345
眼望	-10.3346
大师父	-10.3347
说要	-10.3349
向杨过	-10.335
与杨过	-10.3351
好心	-10.3353
也真	-10.3354
欧阳锋道	-10.3362
余人	-10.3363
半天	-10.3363
八名	-10.3364
赵	-10.3366
原来如此	-10.3369
让开	-10.3375
弟	-10.3386
写着	-10.3399
质	-10.34
悬	-10.3402
果见	-10.3403
义兄	-10.3405
设	-10.3406
打狗棒	-10.3408
率	-10.3409
期	-10.341
没能	-10.3417
太也	-10.3418
芷若	-10.3421
桑昆	-10.3421
秦	-10.3422
小妹	-10.3422
静玄	-10.3422
破解	-10.3423
清楚	-10.3429
照料	-10.3433
文字	-10.3434
情意	-10.3438
站定	-10.3439
盆	-10.3442
可要	-10.3445
蒙古军	-10.3446
袍	-10.3447
逾	-10.3447
关心	-10.345
右腿	-10.346
替他	-10.3461
第五	-10.3477
比我	-10.3479
子弟	-10.3482
跨	-10.3484
委实	-10.3484
一株	-10.3489
多说	-10.3489
告知	-10.349
这样的	-10.3492
一举	-10.3499
击出	-10.3501
心愿	-10.3501
经文	-10.3501
往他	-10.3503
教中	-10.3503
于你	-10.3504
谅	-10.3519
用心	-10.352
瞧在	-10.3522
闷	-10.3523
不听	-10.3524
等等	-10.3528
李萍	-10.3531
拆解	-10.3531
判官笔	-10.3532
那也罢了	-10.3532
段皇爷	-10.3533
贪	-10.3533
锁	-10.3533
长叹一声	-10.3533
转过头来	-10.3533
史火龙	-10.3534
绝技	-10.3535
此番	-10.3536
充满了	-10.3538
不够	-10.3539
此言一出	-10.354
心肠	-10.354
保护	-10.3544
了一下	-10.3545
大弟子	-10.3545
犯了	-10.3546
顷刻间	-10.3548
帮中	-10.3549
学了	-10.3556
说的是	-10.3558
一年	-10.3561
详	-10.3566
当作	-10.3566
说什么	-10.3567
避过	-10.3569
失手	-10.3581
唯	-10.3582
折扇	-10.3582
说了出来	-10.3583
紧紧	-10.3591
休	-10.3594
疼	-10.3594
有所	-10.3598
空手	-10.3605
同去	-10.3611
骂我	-10.3611
不顾	-10.3612
绝情谷	-10.3616
五岳派	-10.3617
说笑	-10.3617
竖	-10.3623
见郭靖	-10.3625
纯	-10.3626
小船	-10.3627
他既	-10.3628
诚	-10.3632
顷刻之间	-10.3633
自从	-10.3633
什么事	-10.3638
哀	-10.3639
只听他	-10.3642
公孙绿萼	-10.3644
尝	-10.3644
网	-10.3644
不放	-10.3644
涂	-10.3644
依稀	-10.3645
叔叔	-10.3645
又惊又怒	-10.3645
变色	-10.3646
凌空	-10.3647
我瞧	-10.3648
急速	-10.3649
都有	-10.3649
得多了	-10.3649
口诀	-10.365
不已	-10.3654
修为	-10.3658
火光	-10.3658
亲兵	-10.366
也不必	-10.3662
变招	-10.3662
法门	-10.3663
驱	-10.3664
仰天	-10.3664
讯息	-10.3671
独自	-10.3675
退后	-10.3677
阁	-10.3679
敌军	-10.3683
时候	-10.3686
临安	-10.369
没半点	-10.3696
可别	-10.3698
下马	-10.37
斗然	-10.3711
传出	-10.3713
棋	-10.3717
哭道	-10.3718
据	-10.3719
若能	-10.3725
我妈	-10.3727
溅	-10.3731
笑吟吟的	-10.374
用意	-10.3751
也罢	-10.3753
我只	-10.3756
挥剑	-10.3757
厅上	-10.3758
郭大侠	-10.3758
萧远山	-10.3759
薛慕华	-10.3759
克制	-10.376
倏地	-10.3761
毒辣	-10.3762
我跟你说	-10.3763
白衣	-10.3763
又怎	-10.3765
男	-10.3766
胡乱	-10.3767
计无施	-10.3767
数月	-10.3768
跌倒	-10.3769
还礼	-10.3771
这两句话	-10.3773
伸手去	-10.3774
向令狐冲	-10.3778
的内功	-10.3782
是你的	-10.3783
左边	-10.3787
剑鞘	-10.3789
这条	-10.3789
余下	-10.3794
供	-10.3797
王子	-10.3798
面子	-10.3804
昆仑	-10.3805
的手臂	-10.3816
便走	-10.3817
却没	-10.3823
呼喝	-10.3823
便不	-10.3824
一震	-10.3825
自然而然的	-10.3826
天上	-10.3828
八人	-10.3829
豪杰	-10.3833
因为	-10.3839
闲	-10.3839
灯	-10.3847
禁	-10.3848
一凛	-10.385
拦在	-10.3851
席	-10.3854
送给	-10.3854
博	-10.3856
敝	-10.3859
相隔	-10.3866
愤怒	-10.3871
深厚	-10.3872
兜	-10.3872
范骅	-10.3872
诸保昆	-10.3872
嘱咐	-10.3873
所知	-10.3873
考	-10.3874
慕容氏	-10.3874
彭和尚	-10.3875
一个大	-10.3876
兽	-10.3876
命丧	-10.3876
呼的一声	-10.3877
千万不可	-10.3878
少林寺中	-10.388
不解	-10.3893
笑声	-10.3893
当先	-10.3894
甜	-10.3899
两下	-10.3902
之功	-10.3904
胆	-10.3909
挡住	-10.3913
议	-10.3916
那样	-10.3918
诱	-10.3922
震得	-10.3925
竟有	-10.393
中年	-10.3933
倒转	-10.3934
换了	-10.3935
再去	-10.3936
屈	-10.3937
说他	-10.394
干系	-10.3942
几位	-10.3945
住手	-10.3947
大师兄	-10.3955
话声	-10.3956
跟前	-10.3957
冲虚	-10.3959
妻	-10.396
仁	-10.396
老和尚	-10.3966
三年	-10.3982
杂	-10.3982
叉	-10.3985
哄	-10.3987
玉女心经	-10.3987
泉	-10.3989
呻吟	-10.3989
衰	-10.3989
横扫	-10.399
穆易	-10.399
案	-10.3991
师侄	-10.3991
拉了	-10.3994
变故	-10.3995
误会	-10.3996
床上	-10.3996
不得不	-10.3996
饶了	-10.3997
辈	-10.3999
甚为	-10.4
嘿	-10.4002
嘴里	-10.4002
但见她	-10.4003
光明顶	-10.4009
相识	-10.401
乘马	-10.4012
转动	-10.4013
胜于	-10.4014
之故	-10.4015
波斯	-10.4016
俗	-10.4019
高强	-10.4021
珠	-10.4021
只见那	-10.4024
闪身	-10.4025
比剑	-10.4025
就不	-10.4029
让她	-10.4029
出神	-10.4034
勿	-10.4037
三声	-10.4038
粘	-10.4041
已自	-10.4049
聚会	-10.4054
身分	-10.4055
喉	-10.4056
孤	-10.406
了一个	-10.4061
问你	-10.4066
受了伤	-10.4066
去见	-10.4071
一提	-10.4071
椅	-10.4074
大仇	-10.4077
痴	-10.4079
可没	-10.4084
怪人	-10.4084
几时	-10.4085
状	-10.4086
极快	-10.4087
若再	-10.4088
瀑布	-10.4088
已到了	-10.409
决非	-10.409
这部	-10.4091
吵	-10.4093
法子	-10.4093
鞋	-10.4098
的汉子	-10.4099
冷笑	-10.4101
大爷	-10.4102
途中	-10.4104
孙不二	-10.4106
末	-10.4107
放声大哭	-10.4107
背脊	-10.4108
玄冥二老	-10.4108
一命	-10.4108
数百	-10.4108
袍袖	-10.4109
结交	-10.4112
豹子	-10.4112
揭开	-10.4115
可得	-10.4116
缺	-10.4117
所谓	-10.412
无色	-10.4123
我不是	-10.4123
制住	-10.4124
非也	-10.4131
相同	-10.4131
头颈	-10.4131
捧	-10.4132
两次	-10.4132
抱住	-10.4137
欲待	-10.4139
你又	-10.4144
在自己	-10.4149
锋	-10.4155
刃	-10.4158
马上	-10.4165
虫	-10.4176
我看	-10.4176
好事	-10.4179
只剩下	-10.4182
向东	-10.4184
所使的	-10.4184
那姑娘	-10.419
右肩	-10.4192
些甚么	-10.4196
焦	-10.4198
生得	-10.4198
我妈妈	-10.42
他对	-10.4207
赶去	-10.4209
壁上	-10.421
这二人	-10.4211
家里	-10.4219
心情	-10.422
所能	-10.4221
冠	-10.4223
那边	-10.4226
嗤的一声	-10.4226
矣	-10.4226
慈悲	-10.4226
绿竹翁	-10.4226
吉	-10.4227
都要	-10.4227
铜缸	-10.4227
王妃	-10.4228
又不	-10.4228
计较	-10.4228
不堪	-10.423
殷姑娘	-10.4232
犹	-10.4232
昏	-10.4234
没人	-10.4237
难免	-10.4237
无量剑	-10.4237
的对手	-10.4238
老兄	-10.424
龙姑娘	-10.424
陪着	-10.4243
崖	-10.4249
乘着	-10.4249
可见	-10.4249
须当	-10.4252
群弟子	-10.4253
躬身道	-10.4254
你倒	-10.4254
郭芙道	-10.4255
幸	-10.4256
无所	-10.4258
接口道	-10.426
见那	-10.4266
我家	-10.4267
磕	-10.4272
一抖	-10.4272
截	-10.4273
甘心	-10.4273
瞧出	-10.4276
惊呼	-10.4277
好容易	-10.428
天地	-10.4281
可怖	-10.4286
靖	-10.4291
少林派的	-10.4291
稍有	-10.4295
成功	-10.4299
众兄弟	-10.4316
姓名	-10.4318
山坡	-10.4323
刺出	-10.4325
对准	-10.4327
日子	-10.4328
牛肉	-10.4333
去瞧瞧	-10.4334
勇	-10.4336
学武	-10.4341
金国	-10.4341
卫	-10.4342
少侠	-10.4343
范	-10.4344
磨	-10.4346
炮	-10.4346
选	-10.4347
天龙寺	-10.4347
自言自语	-10.4347
无可奈何	-10.4347
闭目	-10.4348
郭啸天	-10.4349
一枝	-10.4351
更增	-10.4353
丐帮帮主	-10.4353
高台	-10.4353
还请	-10.4353
寒气	-10.436
木姑娘	-10.4362
跃下	-10.4363
吞	-10.4365
慕容	-10.4368
向郭靖	-10.4371
发足	-10.4373
于此	-10.4375
郭靖与黄蓉	-10.4376
颜	-10.4378
淡淡的道	-10.438
惊人	-10.4383
是什么	-10.4383
数年	-10.4392
当场	-10.4393
桃根仙道	-10.4397
丈余	-10.4401
响起	-10.4403
触	-10.441
以此	-10.4415
一般的	-10.4416
答话	-10.4423
黯然	-10.4432
柳	-10.4435
逐	-10.4435
三十	-10.4436
是我的	-10.4436
丢	-10.4438
料到	-10.4441
禀告	-10.4445
快说	-10.4448
将过去	-10.4448
这门	-10.445
动静	-10.4451
暂	-10.4457
舱	-10.4458
穿过	-10.4458
刷的一声	-10.4459
这女子	-10.4464
抽出	-10.4465
工	-10.4467
天门道人	-10.447
刀白凤	-10.447
大漠	-10.4472
老弟	-10.4473
见到她	-10.4473
好处	-10.4474
眼看	-10.4474
尺许	-10.4475
无异	-10.4476
我不知道	-10.4476
一颗	-10.4478
只道他	-10.4479
留神	-10.4479
惊奇	-10.448
身在	-10.4481
所有	-10.4481
便算	-10.4481
抬起	-10.4484
蓦地	-10.4484
敬重	-10.4488
除去	-10.449
自负	-10.4491
没料到	-10.4492
虽有	-10.4494
一颗心	-10.4494
迹	-10.4498
闻到	-10.4499
他又	-10.4502
绑	-10.4513
老儿	-10.4515
叫人	-10.4515
哪知道	-10.4518
既不	-10.4519
马匹	-10.4522
究竟	-10.4523
小和尚	-10.4539
猛力	-10.454
为之	-10.4543
振	-10.4546
何处	-10.4546
跪倒	-10.4547
来去	-10.4549
他自己	-10.4551
渡	-10.4553
殷素素道	-10.4553
一翻	-10.4553
还手	-10.4556
出力	-10.4567
被她	-10.4569
附	-10.4571
伴	-10.4575
副	-10.4581
拦	-10.4585
一拉	-10.4588
他一	-10.4591
防备	-10.4592
韩林儿	-10.4592
自刎	-10.4593
阔	-10.4593
辛苦	-10.4593
禅杖	-10.4594
简长老	-10.4594
乘势	-10.4596
高老者	-10.4597
化子	-10.4597
大喝一声	-10.4601
要待	-10.4606
我自然	-10.4607
剪	-10.461
理会	-10.4611
放手	-10.4618
骗人	-10.4621
依着	-10.4621
随便	-10.4628
擒拿	-10.4628
另一人道	-10.4629
难当	-10.463
几天	-10.4635
苦练	-10.4646
可不	-10.4648
张无忌心想	-10.4656
俩	-10.4659
学过	-10.4669
就在	-10.4672
老婆	-10.4676
我也不	-10.4676
特	-10.4679
伯	-10.4679
大侠	-10.4683
等到	-10.4684
这和尚	-10.4684
手执	-10.4685
情景	-10.4685
危	-10.4695
忠	-10.4697
有异	-10.47
授	-10.4701
城头	-10.4703
为何	-10.4703
打他	-10.4703
握着	-10.4707
外公	-10.4707
却听得	-10.4707
怕他	-10.4708
胖	-10.4709
犬	-10.4715
愧	-10.4716
扎	-10.4716
他自	-10.4716
郭伯母	-10.4717
易筋经	-10.4717
省	-10.4717
秃笔翁	-10.4717
融	-10.4718
艰难	-10.4718
王罕	-10.4718
日月教	-10.4719
竭力	-10.472
猛地里	-10.4722
项	-10.4722
美酒	-10.4727
都史	-10.4736
有谁	-10.4739
牵	-10.4739
齐声道	-10.4741
坐骑	-10.4744
杀了他	-10.4745
提了	-10.4746
只消	-10.4747
三次	-10.4748
入内	-10.4755
掌风	-10.4757
威猛	-10.4758
不戒	-10.476
上马	-10.4767
吃过	-10.4768
半句	-10.4775
颗	-10.4782
题	-10.4789
酸	-10.4791
杆	-10.4792
解毒	-10.4793
呼呼	-10.4793
的背影	-10.4798
晚上	-10.4798
咱们便	-10.4799
死后	-10.4807
之名	-10.481
除下	-10.4811
几名	-10.4813
将他们	-10.4818
枉	-10.4818
的来历	-10.4819
插在	-10.4824
效	-10.4825
的一响	-10.4826
留在	-10.4828
尽力	-10.4829
在手	-10.483
抓去	-10.4833
掘	-10.484
暖	-10.484
鹤	-10.4842
丈许	-10.4843
寂	-10.4844
较量	-10.4844
进攻	-10.4844
钻研	-10.4845
银针	-10.4846
善哉	-10.4846
平素	-10.4846
这样一个	-10.4846
关怀	-10.4848
斗然间	-10.4848
偷偷	-10.4851
精通	-10.4851
有一个	-10.4851
哼哼	-10.4852
不须	-10.4856
东边	-10.4857
乎	-10.4863
最多	-10.4863
孙	-10.4863
任由	-10.4868
够	-10.4868
莫怪	-10.4869
如风	-10.4874
指向	-10.4877
找到了	-10.4885
铁掌	-10.4887
为敌	-10.4888
饱	-10.4891
六位	-10.4894
再加	-10.4895
剑锋	-10.4896
将起来	-10.49
推出	-10.4905
氏	-10.4907
福威镖局	-10.4907
陷	-10.4907
方向	-10.4912
虽在	-10.4916
相比	-10.4922
跟着又	-10.4926
的兵刃	-10.493
要找	-10.4933
献	-10.4939
高声	-10.4941
从他	-10.4942
自有	-10.4943
将下去	-10.4943
参与	-10.4947
瞧不见	-10.4947
畜生	-10.4949
瓦	-10.495
终南山	-10.4951
巴	-10.4951
扭	-10.4953
一惊之下	-10.4954
兼	-10.4961
那马	-10.4962
家中	-10.4962
情由	-10.4963
拢	-10.497
宛似	-10.4973
布置	-10.4973
不下	-10.4977
杨兄弟	-10.4982
相遇	-10.4983
恰好	-10.4985
金刀	-10.4989
一言不发	-10.4991
骗我	-10.4991
撞在	-10.4993
无用	-10.4998
凡	-10.5002
不知如何是好	-10.5002
旁观众人	-10.5005
参见	-10.5009
极大的	-10.5009
叫了起来	-10.5011
究	-10.502
舌头	-10.5021
怔怔的	-10.5023
毁了	-10.5026
去啦	-10.5032
也没有	-10.5032
丐帮的	-10.5038
放着	-10.5039
金针	-10.5045
为我	-10.5045
掷去	-10.5048
交情	-10.5056
晕	-10.5058
心事	-10.5061
山石	-10.5066
权	-10.507
又有什么	-10.5072
千里	-10.5075
脸颊	-10.5077
竟没	-10.5081
我二人	-10.5082
缚	-10.5084
时日	-10.5084
宴	-10.5085
恒山派的	-10.5092
猜想	-10.5094
响亮	-10.5094
获	-10.51
独孤九剑	-10.5101
煮	-10.5102
五哥	-10.5102
素不相识	-10.5102
冒充	-10.5102
放屁	-10.5103
华山派的	-10.5104
阴谋	-10.5104
东邪	-10.5106
十余年	-10.5107
山下	-10.5108
映	-10.5113
热气	-10.5113
祖师爷	-10.5116
酒楼	-10.5117
九阳神功	-10.5123
竟能	-10.5129
小丫头	-10.5133
找不到	-10.5133
五六	-10.5135
并没	-10.5138
加上	-10.5147
剑上	-10.5147
半边	-10.5148
这对	-10.515
臂上	-10.5152
乖乖的	-10.5154
料知	-10.5155
窜出	-10.516
传你	-10.5163
的东西	-10.5164
在内	-10.5165
自会	-10.5171
几日	-10.5172
会使	-10.5172
途	-10.5177
高举	-10.5179
十多	-10.5182
洞口	-10.5193
对准了	-10.5197
练得	-10.5198
这中间	-10.52
纵横	-10.52
跟我们	-10.5202
张开	-10.5206
的规矩	-10.5208
一转	-10.5209
不是我	-10.521
侠义	-10.521
坟	-10.5211
怪不得	-10.5213
击去	-10.5218
怀里	-10.5219
杀得	-10.5226
帆	-10.5227
而不	-10.5228
深知	-10.5232
奥妙	-10.5232
支持	-10.5232
墨	-10.5233
六个	-10.5233
手下留情	-10.5234
讲究	-10.5234
高升泰	-10.5234
证	-10.5235
艺	-10.5235
陈长老	-10.5235
蓝凤凰	-10.5235
弯腰	-10.5236
妄	-10.5237
恕罪	-10.5238
包裹	-10.5238
亲眼见到	-10.524
神妙	-10.5242
灵动	-10.5243
赢	-10.5243
双颊	-10.5243
不加	-10.5244
拚	-10.5246
也非	-10.5246
贱	-10.5247
雷	-10.5247
教人	-10.525
双双	-10.5251
之见	-10.5253
均知	-10.5256
甚好	-10.5258
又有甚么	-10.5262
哪里还	-10.5264
数十人	-10.5264
那不是	-10.5273
受人	-10.5274
经历	-10.5274
哪一位	-10.5277
大哥哥	-10.5279
英雄豪杰	-10.5283
所杀	-10.5288
水中	-10.5296
群道	-10.5299
袖	-10.5304
一生之中	-10.5313
可也	-10.5314
细看	-10.5315
这一拳	-10.5315
极高	-10.5317
得他	-10.5319
树干	-10.5319
有事	-10.5323
正待	-10.5328
一死	-10.5333
跃开	-10.5339
济	-10.5342
就只	-10.5346
技	-10.5347
以便	-10.5348
一群	-10.535
郭靖心想	-10.5351
啸声	-10.5352
解开了	-10.5353
一面说	-10.5356
好像	-10.5361
俊	-10.5365
躬身行礼	-10.5366
所伤	-10.5366
蹙	-10.5366
猪	-10.5366
摘星子	-10.5367
的伤势	-10.5367
掌棒龙头	-10.5367
执法长老	-10.5368
近年来	-10.5368
枯荣大师	-10.5368
丹药	-10.5369
女婿	-10.5369
神仙姊姊	-10.5369
不平道人	-10.537
亲热	-10.5371
畔	-10.5371
令尊	-10.5372
家人	-10.5373
六位师父	-10.5376
大半	-10.5378
当胸	-10.538
甚至	-10.5381
不轻	-10.5385
只求	-10.5387
难道我	-10.5389
大恶人	-10.5394
一晚	-10.5401
得手	-10.5402
的师父	-10.5403
僵	-10.5403
如此说来	-10.5406
的法子	-10.5411
始	-10.5413
活着	-10.5413
想着	-10.5416
一层	-10.5417
一个女子	-10.542
知是	-10.5424
父女	-10.5426
不让	-10.5431
在武林中	-10.5436
以防	-10.5442
摸到	-10.5442
永	-10.5442
我自己	-10.5444
行了	-10.5445
没甚么	-10.5445
妇	-10.5454
恶毒	-10.5457
褚万里	-10.5458
大英雄	-10.5462
我跟	-10.5463
冲出	-10.5472
说罢	-10.5472
的少年	-10.5474
抢过	-10.5474
仪	-10.5474
惊讶	-10.5478
不喜	-10.5481
练武	-10.5485
伸指	-10.5489
令狐	-10.549
岸	-10.5494
挂念	-10.5497
冤	-10.5497
您	-10.5499
念着	-10.55
刚好	-10.55
富	-10.5502
渡厄	-10.5502
轻身功夫	-10.5502
空隙	-10.5502
武当七侠	-10.5503
丰	-10.5503
蹄声	-10.5503
大理段氏	-10.5503
定了定	-10.5504
凑	-10.5504
棋局	-10.5504
’、‘	-10.5505
全不	-10.5506
算帐	-10.5506
平安	-10.5506
应付	-10.5506
痛楚	-10.551
饿	-10.5512
不远	-10.5515
是为	-10.5516
第一个	-10.5527
墙壁	-10.5532
报答	-10.554
射出	-10.5541
不约而同的	-10.5544
不敌	-10.5546
五弟	-10.5546
所说的	-10.5552
你这小子	-10.5552
大呼	-10.5556
大厅上	-10.5557
如此说	-10.5557
王府	-10.5562
穿了	-10.5564
倒退	-10.5565
仗着	-10.5568
既有	-10.557
见这	-10.5571
摇摇头	-10.5572
少林寺的	-10.5575
之道	-10.5576
数声	-10.5577
他武功	-10.5578
的神情	-10.5578
正面	-10.5579
要穴	-10.558
难看	-10.5581
在外	-10.5587
面上	-10.5589
在此处	-10.5595
还道	-10.5596
了吗	-10.5603
我给你	-10.5607
身上的	-10.5615
之计	-10.5617
缸	-10.5618
坑	-10.5619
人丛中	-10.5621
均有	-10.5622
遮	-10.5624
了开去	-10.5624
二十年	-10.5624
大声说道	-10.5625
实在太	-10.5626
已无	-10.5628
堂堂	-10.5632
简	-10.5632
刀子	-10.5634
碧	-10.5634
尸身	-10.5636
炸	-10.5637
吴	-10.5638
陈玄风	-10.5638
惊喜交集	-10.5639
说不出话来	-10.564
郑萼	-10.564
慕容先生	-10.564
灯火	-10.5641
好好的	-10.5641
纠缠	-10.5641
左盟主	-10.5642
尸首	-10.5644
一大	-10.5646
谁也不敢	-10.5646
我跟你	-10.5648
深入	-10.5651
说出来	-10.5652
消息	-10.5661
解救	-10.5663
人品	-10.5664
大小	-10.5666
述说	-10.5669
活命	-10.567
十余人	-10.5671
脑	-10.5679
株	-10.5681
丹	-10.5683
两年	-10.5684
就会	-10.5687
义气	-10.569
请他	-10.5691
用功	-10.5694
毒物	-10.5696
徒弟	-10.5698
暗道	-10.5701
普天下	-10.5702
甚高	-10.5702
却不是	-10.5704
泰山派	-10.5704
镖局	-10.5704
忽觉	-10.5705
却也是	-10.571
桃实仙	-10.5717
贵帮	-10.5718
分手	-10.5718
鲜	-10.5719
不过是	-10.5719
亭	-10.5722
姑	-10.5722
恶贼	-10.5724
屁股	-10.5727
待你	-10.5728
想到了	-10.5742
西夏国	-10.5742
点穴	-10.5743
三步	-10.5746
真要	-10.5747
与人	-10.5748
了一遍	-10.5748
全仗	-10.5749
的眼光	-10.5749
按住	-10.5752
贴	-10.5752
向右	-10.5753
陪你	-10.5756
死得	-10.5758
回家	-10.576
那日在	-10.5761
下毒	-10.5762
帖	-10.5765
肠	-10.5766
兔	-10.5768
烤	-10.5768
怎么办	-10.5769
谨	-10.577
征	-10.5772
投入	-10.5774
牙	-10.5775
向南	-10.5775
自己也	-10.5776
殷野王	-10.5777
染	-10.5777
阻拦	-10.5778
昔年	-10.5778
凌波微步	-10.5778
姑苏慕容氏	-10.5778
欢呼	-10.5778
桃叶仙	-10.5779
哽咽	-10.5779
我和你	-10.578
当众	-10.578
这路	-10.5786
打倒	-10.5791
长须	-10.5796
威名	-10.5798
毒性	-10.5798
答道	-10.58
顿	-10.5806
拐杖	-10.5808
难道是	-10.5809
三尺	-10.5813
穿着	-10.5818
但如	-10.5819
一同	-10.5819
两旁	-10.5821
方生	-10.5822
对敌	-10.5826
一到	-10.5827
打到	-10.583
置	-10.5832
驴	-10.5833
药丸	-10.5836
连叫	-10.5837
当是	-10.5838
勾	-10.5845
美人	-10.5845
胜败	-10.5849
护住	-10.5849
愕然	-10.5854
了两	-10.5856
石屋	-10.5857
此间	-10.5861
养伤	-10.5863
好意	-10.5873
在地	-10.5874
这副	-10.5876
抢了	-10.5882
我心中	-10.5882
那姓	-10.5885
树林	-10.5885
重阳宫	-10.5886
语声	-10.5891
南下	-10.5893
快去	-10.5897
衫	-10.5897
拱手	-10.5903
袭击	-10.5905
终是	-10.5908
彩	-10.5914
葫芦	-10.5918
颜烈	-10.5918
包三先生	-10.5918
张阿生	-10.5918
黄岛主	-10.5918
侥幸	-10.5919
窄	-10.5919
锅	-10.5919
阻止	-10.5919
神农帮	-10.592
杨左使	-10.592
展开轻功	-10.592
再也忍耐不住	-10.592
郑重	-10.5921
神僧	-10.5923
胡说	-10.5924
抵挡不住	-10.5924
打了个	-10.5925
自也	-10.5927
兄长	-10.5927
张公子	-10.5928
娘子	-10.5929
埋伏	-10.5929
柯镇恶道	-10.5932
风流	-10.5934
来历	-10.5936
大声喝	-10.5937
浪	-10.5937
山道	-10.5937
惊惧	-10.5939
嘉兴	-10.594
偏生	-10.5948
金毛狮王	-10.5948
一撞	-10.595
大了	-10.5951
从中	-10.5952
兄妹	-10.5952
大树	-10.5959
山后	-10.5964
去看	-10.5966
懂得	-10.5974
撤	-10.5983
续	-10.5988
毙	-10.599
▁...	-10.5992
再过	-10.5992
食指	-10.6
七公	-10.6003
挡开	-10.6003
诡计	-10.6009
去救	-10.601
疯	-10.6016
掌中	-10.602
乞丐	-10.6023
向大哥	-10.6023
一刻	-10.6024
拿来	-10.6028
又去	-10.6033
不开	-10.6033
递给	-10.6036
老天爷	-10.604
倒了	-10.6042
还不是	-10.6043
七个	-10.6045
作了	-10.6046
明天	-10.6051
杀害	-10.6052
你把	-10.6053
我叫	-10.6057
笨	-10.6058
嘻嘻	-10.606
不动声色	-10.606
绝情丹	-10.6061
了上去	-10.6061
脑海中	-10.6062
潇洒	-10.6062
默不作声	-10.6062
巨岩	-10.6062
诡异	-10.6062
鲜于通	-10.6062
渊源	-10.6062
姚伯当	-10.6063
嘴唇	-10.6063
躺在地下	-10.6063
脱困	-10.6064
暗暗心惊	-10.6066
妇人	-10.6068
的手腕	-10.6068
想得	-10.6069
惊慌	-10.607
暗暗叫苦	-10.607
两枚	-10.6072
否则的话	-10.6075
原来这	-10.6075
一听到	-10.6075
右首	-10.6075
躺在	-10.6084
所传	-10.6084
且看	-10.6088
石子	-10.609
说话之间	-10.6091
百倍	-10.6094
向自己	-10.61
生出	-10.6105
眼珠	-10.6107
起疑	-10.611
向那	-10.6111
拳头	-10.6112
黄帮主	-10.6114
这三人	-10.6117
全真教的	-10.6118
我已	-10.612
大船	-10.6124
不定	-10.6125
见是	-10.6133
岂是	-10.6139
有点儿	-10.6142
指挥	-10.6146
紧急	-10.6147
奸人	-10.6149
肚	-10.6149
之伤	-10.6151
潜	-10.6151
她老人家	-10.6154
懂	-10.6155
杵	-10.6155
叫嚷	-10.6159
不似	-10.6161
人来	-10.6162
后颈	-10.6163
罪过	-10.6173
必须	-10.6177
的手掌	-10.6177
梅	-10.6178
杨过见	-10.618
心法	-10.6181
叔	-10.6181
用以	-10.6182
的儿子	-10.6185
仆	-10.6186
全没	-10.6186
一脚	-10.6186
现出	-10.619
的下落	-10.6191
圈子	-10.6199
小孩	-10.62
成名	-10.62
筋	-10.62
窥	-10.6201
蓝	-10.6202
过人	-10.6202
拍出	-10.6202
幻	-10.6203
的眼睛	-10.6205
丐帮弟子	-10.6205
缥缈峰	-10.6206
玉玑子	-10.6206
顽皮	-10.6206
稀	-10.6207
沉吟半晌	-10.6208
内堂	-10.6208
无辜	-10.6208
敝帮	-10.6208
钟镇	-10.6208
岳飞	-10.6212
巨响	-10.6212
大敌	-10.6212
舞动	-10.6213
铜	-10.6214
神仙	-10.6214
自杀	-10.6218
夹着	-10.6218
老先生	-10.6218
撑	-10.622
领悟	-10.6221
向段誉	-10.6221
千百	-10.6223
戏	-10.6226
岛主	-10.6226
内心	-10.6229
白雕	-10.6231
也能	-10.6234
照顾	-10.6239
果真	-10.624
拦住	-10.624
忽然间	-10.6244
刚猛	-10.6244
如飞	-10.625
马鞭	-10.6252
唇	-10.6254
却哪里	-10.6255
下山去	-10.6255
十九	-10.626
了上来	-10.626
携着	-10.6264
之念	-10.6266
妹妹	-10.6266
肿	-10.6267
身受	-10.6267
时刻	-10.6279
有甚	-10.628
赶路	-10.628
缩回	-10.6287
牢	-10.629
这两	-10.6291
貌	-10.6292
凄然	-10.6292
小贼	-10.6295
当此	-10.6296
小侄	-10.6298
苦头	-10.6299
均觉	-10.6304
钻入	-10.6305
称为	-10.6307
大雪	-10.6309
脑中	-10.631
幼	-10.631
一向	-10.6312
奔来	-10.6313
他们的	-10.6317
那是甚么	-10.6321
一扬	-10.6324
遣	-10.6325
逃出	-10.6328
瞧她	-10.6328
又来	-10.6328
打去	-10.6329
留着	-10.6329
一紧	-10.633
疏	-10.6332
悬崖	-10.6332
哪知他	-10.6335
武林中人	-10.6336
形貌	-10.6338
让他们	-10.6342
绣	-10.6343
追上	-10.6345
不会武功	-10.6345
怜惜	-10.6346
不停	-10.6348
明儿	-10.6348
中国	-10.6349
嫣然一笑	-10.6349
第一次	-10.635
捕	-10.6351
呀	-10.6352
弦	-10.6353
满腔	-10.6353
单打独斗	-10.6353
呆呆出神	-10.6353
去路	-10.6354
寂寞	-10.6354
发抖	-10.6354
鲍大楚	-10.6355
老朽	-10.6355
尊驾	-10.6355
也没甚么	-10.6356
除非	-10.6356
鲁	-10.6358
似有	-10.6358
混乱	-10.6359
黑影	-10.6363
大骇	-10.6364
不知去向	-10.6367
也曾	-10.6369
之仇	-10.6369
消失	-10.6369
顶上	-10.637
石室	-10.6372
常言道	-10.6374
脱险	-10.6378
第二个	-10.6379
攀	-10.6383
惊觉	-10.6392
深深	-10.6397
人的	-10.64
三天	-10.6401
过的	-10.6402
怎敢	-10.6404
渔	-10.6406
意思	-10.6412
上身	-10.6416
射去	-10.6416
也不过	-10.6422
一个是	-10.6425
听到了	-10.6425
与她	-10.6425
再见	-10.6426
不利	-10.6426
矛	-10.6426
那时候	-10.6429
你好	-10.6429
喷出	-10.6439
鸠摩智道	-10.644
四个人	-10.6443
骂人	-10.6444
部属	-10.6446
苍	-10.6447
红马	-10.6453
救他	-10.6457
的目光	-10.6458
有许多	-10.6458
别派	-10.6458
但在	-10.6463
老头儿	-10.6464
听他说	-10.6467
了三	-10.6468
我可要	-10.6469
心惊	-10.647
你这人	-10.647
再也不敢	-10.647
回入	-10.6472
不知是	-10.6473
倘若我	-10.6473
雅	-10.6474
的日子	-10.6477
认出	-10.6477
大金国	-10.6479
诀	-10.6479
逍遥派	-10.6481
堕	-10.6481
实非	-10.6486
大祸	-10.6488
嚼	-10.6489
见你	-10.6491
患	-10.6492
毒手	-10.6493
木剑	-10.6494
距	-10.6498
练成了	-10.6499
拗	-10.65
他肩头	-10.65
不知她	-10.6502
齿	-10.6502
曲洋	-10.6503
吸星大法	-10.6503
常金鹏	-10.6503
朱元璋	-10.6503
教诲	-10.6504
脸色大变	-10.6504
他要	-10.6504
马蹄声响	-10.6505
毒针	-10.6506
要来	-10.6507
丧命	-10.6508
已给	-10.651
携手	-10.6511
脸上变色	-10.6512
身子一晃	-10.6512
中人	-10.6513
竟敢	-10.6516
天色	-10.6516
太多	-10.6521
极少	-10.6522
抚	-10.6522
再也不	-10.6524
抢出	-10.6524
怎么啦	-10.6526
数人	-10.6529
伯伯	-10.653
尚且	-10.6534
毕生	-10.6537
几年	-10.6538
打不过	-10.6538
柔和	-10.6539
故事	-10.6545
风兄弟	-10.6546
扑去	-10.6548
激动	-10.6554
没死	-10.6565
跟在	-10.657
与自己	-10.6574
所授	-10.6576
挟	-10.6577
镇上	-10.6578
番僧	-10.658
古墓派	-10.6582
可比	-10.6586
尽可	-10.6588
骇异	-10.6589
碍	-10.6589
发掌	-10.6593
忌	-10.6594
向张无忌	-10.6597
歪	-10.66
粒	-10.6602
后退	-10.6603
与黄蓉	-10.6608
益	-10.6615
住在	-10.6619
不住的	-10.662
丫头	-10.6623
要说	-10.6626
噗的一声	-10.6627
打你	-10.6631
逐一	-10.6632
逃命	-10.6636
命他	-10.6638
旁的	-10.6639
登时便	-10.6642
倏	-10.6643
愤	-10.6646
果是	-10.6646
在半空	-10.6646
陆无双道	-10.6648
住口	-10.665
茫然	-10.6652
书生	-10.6653
挥手	-10.6654
郡主	-10.6654
伐	-10.6654
练了	-10.6654
盘旋	-10.6654
唐	-10.6655
愈来愈	-10.6655
白龟寿	-10.6655
传功长老	-10.6655
求恳	-10.6655
站立	-10.6655
不戒和尚	-10.6656
务须	-10.6657
附近	-10.6658
头脑	-10.6658
举止	-10.6658
始终没	-10.6659
缓缓的道	-10.666
那宫女	-10.6661
桃根仙	-10.6662
上当	-10.6668
嗔道	-10.6675
再打	-10.6679
人心	-10.6683
若无	-10.6683
郭靖见	-10.6686
一见到	-10.6687
黄蓉见	-10.6688
撞到	-10.6688
亲手	-10.6689
我问你	-10.669
那道姑	-10.6695
也不知道	-10.6697
未到	-10.6697
万万不能	-10.6699
记着	-10.6703
之感	-10.6703
听到这里	-10.6705
剑宗	-10.6708
麽	-10.6709
抓着	-10.6711
揭	-10.6711
稳稳	-10.6717
怎么样	-10.6718
寒毒	-10.6719
世人	-10.672
但要	-10.6721
舵主	-10.6722
尚在	-10.6725
转了	-10.6734
情知	-10.674
吐出	-10.6742
一点儿	-10.6742
为你	-10.6743
姿式	-10.6745
闪动	-10.6747
罢手	-10.6754
你是谁	-10.6759
因而	-10.6762
一行	-10.6763
一遍	-10.6766
了大半	-10.6767
意欲	-10.6768
数千	-10.6771
学会了	-10.6773
但随即	-10.6777
都道	-10.6777
那晚	-10.6781
这叫做	-10.6782
大响	-10.6782
呆了	-10.6783
不杀	-10.6785
当时我	-10.6786
肥	-10.6791
带同	-10.6798
什麽	-10.6798
得干干净净	-10.6801
畅	-10.6802
海中	-10.6804
享	-10.6806
造诣	-10.6806
召	-10.6807
贤弟	-10.6807
晚间	-10.6807
裘	-10.6808
煞	-10.6808
康广陵	-10.6808
陆乘风	-10.6809
同归于尽	-10.6809
陡然	-10.6809
日月神教	-10.6809
高高	-10.6809
久仰	-10.6809
悲愤	-10.681
拦阻	-10.681
哑巴	-10.681
支持不住	-10.681
丘道长	-10.681
自忖	-10.681
野兽	-10.681
微一沉吟	-10.681
祖宗	-10.6811
止清	-10.6815
无意中	-10.6817
佛法	-10.6817
等候	-10.682
吃亏	-10.682
啸	-10.6821
语气	-10.6824
数步	-10.6825
伸臂	-10.6831
清水	-10.6832
分开	-10.6833
领会	-10.6833
波罗星	-10.6835
陪我	-10.6837
大雨	-10.6842
说些甚么	-10.6845
四方	-10.6846
别的	-10.6846
想想	-10.6852
去势	-10.6854
不止	-10.6855
渡难	-10.6856
老爷子	-10.6857
开心	-10.6859
你心中	-10.686
我虽	-10.6865
使的是	-10.6867
出剑	-10.6868
内伤	-10.6871
损伤	-10.6872
心口	-10.6873
好酒	-10.6876
大起	-10.6877
胁下	-10.6878
伤处	-10.688
大感	-10.6882
心中大喜	-10.6882
枯	-10.6883
只觉得	-10.6885
一共	-10.6887
不快	-10.6889
凛然	-10.6892
喊	-10.6894
地底	-10.6897
伤他	-10.6898
拣	-10.6901
朱聪道	-10.6911
那声音	-10.6912
斧	-10.6918
狠毒	-10.692
众人都	-10.6924
斗得	-10.6925
便觉	-10.6927
探头	-10.6928
那妇人	-10.6934
便和	-10.6934
狠狠	-10.6937
六弟	-10.6937
后院	-10.6937
仇人	-10.6939
绕着	-10.6946
膝	-10.6947
操	-10.695
修练	-10.6952
我可不	-10.6952
她说	-10.6952
赔	-10.6957
一匹	-10.6958
纷	-10.6958
凤	-10.6958
摇晃	-10.6959
失望	-10.6963
汪帮主	-10.6963
惶急	-10.6963
夏	-10.6963
都在	-10.6964
池	-10.6964
所害	-10.6964
清脆	-10.6964
犹豫	-10.6964
延庆太子	-10.6965
满是	-10.6965
黑风双煞	-10.6965
半尺	-10.6965
幽	-10.6965
肋骨	-10.6965
解释	-10.6966
不多时	-10.6967
一愕	-10.6967
才能	-10.6967
胡先生	-10.6967
这厮	-10.6969
忒也	-10.697
特别	-10.697
天竺僧	-10.6973
飞去	-10.6975
铁棒	-10.6976
狂奔	-10.6977
顺势	-10.6978
追击	-10.6978
打量	-10.6979
再不	-10.698
在先	-10.698
西边	-10.6981
大海	-10.6989
便来	-10.6992
睁眼	-10.6993
秘笈	-10.6993
危急中	-10.6994
瓶	-10.6995
讨好	-10.6996
引得	-10.6997
殿上	-10.6998
左脚	-10.7
罩	-10.7001
姑苏慕容	-10.7001
多谢你	-10.7002
爹娘	-10.7003
杀了我	-10.7005
断折	-10.7006
这位是	-10.7008
你知道	-10.7012
没见过	-10.7012
得出	-10.7016
四五	-10.7019
震断	-10.7022
以他	-10.7022
空中	-10.7025
倒地	-10.7028
大家都	-10.7033
写了	-10.7033
僧众	-10.7034
左掌门	-10.7034
那僧人	-10.7043
墙上	-10.7046
以内力	-10.7046
声息	-10.7048
背负	-10.7051
溪	-10.7051
这时他	-10.7055
运力	-10.7064
两道	-10.7065
即是	-10.7068
这一晚	-10.7074
自觉	-10.7074
相聚	-10.7074
刺入	-10.7078
一边	-10.7085
交手	-10.7088
你到底	-10.7088
撕下	-10.709
害得	-10.7093
察	-10.7095
酒保	-10.7101
温	-10.7102
叛	-10.7104
却仍	-10.7104
态	-10.711
是她	-10.7113
继	-10.7113
哨	-10.7114
十余丈	-10.7116
韩	-10.7118
再问	-10.7119
厌	-10.712
哉	-10.7122
危急	-10.7122
札木合	-10.7122
欧阳	-10.7123
手忙脚乱	-10.7123
黛绮丝	-10.7123
辽兵	-10.7123
西山一窟鬼	-10.7123
带头大哥	-10.7123
向旁	-10.7124
正色道	-10.7124
中指	-10.7124
叛徒	-10.7124
现今	-10.7124
吴长老	-10.7125
紧闭	-10.7126
官府	-10.7126
拆招	-10.7127
情状	-10.7128
胆子	-10.7128
你说甚么	-10.7128
我才	-10.7134
人多	-10.7134
日间	-10.7138
群僧	-10.714
你叫我	-10.7141
送命	-10.7149
平生	-10.7151
秘道	-10.7153
的影子	-10.7158
一字	-10.7159
大会	-10.7167
藏身	-10.7169
面具	-10.7174
不弱	-10.7175
划了	-10.7175
在半空中	-10.7177
的功力	-10.7177
蛮	-10.7181
左侧	-10.7187
难受	-10.7188
使不得	-10.7189
在他身上	-10.7193
俞	-10.7195
好不	-10.7197
今日之事	-10.72
足下	-10.72
立刻	-10.7203
逞	-10.7208
甚么人	-10.7209
滋味	-10.7212
戒律	-10.7215
说明	-10.7215
自如	-10.7217
倒有	-10.722
他日	-10.7222
好让	-10.7228
固是	-10.723
笑着	-10.7231
打中	-10.7233
走远	-10.7234
则是	-10.7235
只说	-10.7236
恨不得	-10.7238
动弹	-10.7244
追到	-10.7245
决不敢	-10.7247
大腿	-10.7248
苦苦	-10.7248
不多	-10.7248
虽强	-10.725
跟着便	-10.7251
一望	-10.7251
拆了	-10.7252
你不是	-10.7255
废	-10.7256
齐向	-10.7257
十余名	-10.7258
访	-10.7266
山东	-10.7268
钻出	-10.7269
全真	-10.727
股	-10.7272
总镖头	-10.7274
号角	-10.7274
瓷瓶	-10.7274
舵	-10.7278
桨	-10.7281
哈	-10.7281
覆	-10.7283
气得	-10.7283
丑陋	-10.7284
六大派	-10.7284
何师我	-10.7284
哎唷	-10.7285
丑八怪	-10.7285
破口大骂	-10.7285
次晨	-10.7285
极重	-10.7285
高下	-10.7287
尤其	-10.7287
誉儿	-10.7287
襄儿	-10.7288
沉思	-10.7288
月亮	-10.7288
闪烁	-10.7288
也就是了	-10.7289
当然是	-10.7291
结果	-10.7291
救援	-10.7292
你为甚么	-10.7292
允	-10.7293
飞步	-10.7295
一交	-10.7296
上乘	-10.7298
却要	-10.73
俏	-10.7301
怎知	-10.7302
相接	-10.7302
跌落	-10.7303
月光	-10.7304
一把抓住	-10.7308
没事	-10.7311
吆喝	-10.7314
击中	-10.7316
歌声	-10.7317
百年	-10.7319
幼时	-10.7321
单凭	-10.7322
’。”	-10.7322
都给	-10.7326
腕	-10.7327
放入	-10.7327
跃入	-10.733
你在	-10.7336
单正	-10.734
数十年来	-10.7342
出房	-10.7344
做得	-10.735
你妈	-10.7355
第六	-10.7358
几个人	-10.7361
了几句	-10.7362
大力	-10.7362
二师哥	-10.7363
练过	-10.7364
短刀	-10.7364
喀喇一声	-10.7364
传到	-10.7366
追去	-10.7367
大军	-10.7376
身处	-10.7378
凭着	-10.738
似乎是	-10.7385
是也不是	-10.7389
棒法	-10.7392
麻烦	-10.7396
琴声	-10.7401
寻找	-10.7403
书房	-10.7405
惯了	-10.7408
黄蓉叫道	-10.7408
怪你	-10.7412
害我	-10.7418
这几句	-10.7423
平日	-10.7423
不见了	-10.7426
默	-10.7427
所见	-10.7431
铁枪	-10.7431
这许多人	-10.7434
轻轻的	-10.7434
了多少	-10.7437
桶	-10.7438
下盘	-10.7438
觅	-10.7439
沿	-10.7439
亲口	-10.744
琢磨	-10.7445
三下	-10.7445
欠	-10.7445
虑	-10.7446
奶奶	-10.7446
腻	-10.7447
卫璧	-10.7448
卓不凡	-10.7448
封不平	-10.7448
矮老者	-10.7449
跳起身来	-10.7449
霜	-10.7449
苏	-10.7449
恨恨的道	-10.7449
黑玫瑰	-10.7449
猫	-10.7449
龙门镖局	-10.7449
陆立鼎	-10.7451
昂然	-10.7452
守在	-10.7452
送了性命	-10.7452
残废	-10.7452
一千	-10.7453
叫了声	-10.7454
不离	-10.7454
这门功夫	-10.7454
打败	-10.7455
生下	-10.7456
拉开	-10.7458
黑衣	-10.7459
兼之	-10.7462
黑色	-10.7462
自己性命	-10.7467
说一句	-10.7467
此举	-10.7468
快来	-10.747
脚步声	-10.747
一队	-10.7476
走入	-10.7478
惜	-10.7478
回归	-10.7479
来回	-10.7479
有毒	-10.748
河南	-10.7485
但这时	-10.7486
段氏	-10.7487
那么你	-10.7488
脸上神色	-10.7488
一柄长剑	-10.7489
为此	-10.7489
坐在地下	-10.749
脸孔	-10.7491
一众	-10.7494
无已	-10.7494
一变	-10.7494
一出口	-10.7496
就如	-10.7497
收了	-10.7497
扑上	-10.7498
跪	-10.7498
只见一个	-10.7498
喝采	-10.7503
比试	-10.7503
恩德	-10.7504
焉能	-10.7504
右边	-10.7509
但愿	-10.7514
违	-10.7517
旁观	-10.7517
等都	-10.7521
番	-10.7523
方丈大师	-10.7523
了回来	-10.7525
红了	-10.7527
长索	-10.753
大举	-10.753
接了	-10.7533
众僧	-10.7536
天下第一	-10.7542
关头	-10.7542
霸	-10.7542
幅	-10.7552
她肩头	-10.7555
挣	-10.7556
有限	-10.7557
的伤	-10.7557
极深	-10.7562
爹爹妈妈	-10.7566
援	-10.7568
了许多	-10.7572
拒	-10.7575
叹息	-10.7576
下令	-10.7579
在后	-10.7579
的尸体	-10.758
十五	-10.758
军士	-10.7585
定有	-10.7586
猎	-10.7587
剧	-10.7587
存心	-10.7588
逢	-10.759
一箭	-10.7591
未必便	-10.7592
竟自	-10.7595
婚	-10.7597
哭泣	-10.7597
料得	-10.7605
却仍是	-10.7606
蠢	-10.7606
丽	-10.7607
尹	-10.7611
财	-10.7612
胀	-10.7612
瞧在眼里	-10.7614
玉虚散人	-10.7614
咽	-10.7615
王元霸	-10.7615
予	-10.7615
华赫艮	-10.7615
装束	-10.7615
死去	-10.7615
浆	-10.7615
大头鬼	-10.7616
凿	-10.7616
秦绢	-10.7616
九阳真经	-10.7616
担忧	-10.7616
不住口的	-10.7617
也不肯	-10.7617
两头	-10.7618
今年	-10.7618
哪敢	-10.762
聚集	-10.762
她身子	-10.7621
引见	-10.7622
后脑	-10.7624
钟姑娘	-10.7624
把握	-10.7624
颜色	-10.7626
的心事	-10.7626
相公	-10.7626
宝剑	-10.763
甚麽	-10.7633
将出去	-10.7637
毒虫	-10.7637
这股	-10.7637
师尊	-10.7638
十招	-10.7638
拍手	-10.7642
张望	-10.7646
婆	-10.7648
时光	-10.7648
疾刺	-10.7649
的力道	-10.7649
呆了半晌	-10.7649
六七	-10.7651
不容易	-10.7651
冲虚道	-10.7652
万料不到	-10.7652
他手腕	-10.7663
这时听	-10.7664
招招	-10.7668
往事	-10.7668
看清楚	-10.7669
一排	-10.7675
事事	-10.7683
辱	-10.7688
一摸	-10.7694
举刀	-10.7694
一味	-10.7696
丛	-10.7699
望一眼	-10.7699
却在	-10.7704
飞奔	-10.7708
太极拳	-10.771
与小龙女	-10.7712
第七	-10.7712
有丝毫	-10.7714
绕过	-10.7715
张无忌见	-10.7719
好说	-10.7719
太师叔	-10.7721
兵马	-10.7725
将上来	-10.7725
杀的	-10.7729
躲避	-10.7737
便给	-10.7738
述	-10.7739
源	-10.774
没见到	-10.7741
快些	-10.7744
哪能	-10.7745
自必	-10.7746
刑	-10.7748
得胜	-10.7753
你当真	-10.7754
传人	-10.7759
他手	-10.776
耽	-10.7763
后悔	-10.7765
情形	-10.7775
了进去	-10.7775
转念	-10.7778
五年	-10.778
好兄弟	-10.7781
贯	-10.7781
译	-10.7783
机括	-10.7784
产	-10.7784
图谋	-10.7785
奇特	-10.7785
武三娘	-10.7785
冰蚕	-10.7785
哦	-10.7785
寡	-10.7785
的大事	-10.7786
闪电貂	-10.7786
詹春	-10.7786
一挡	-10.7787
踏上一步	-10.7787
冒险	-10.7787
蜜蜂	-10.7789
关节	-10.7789
黑索	-10.7791
脸色惨白	-10.7792
的厉害	-10.7793
绳子	-10.7794
秃	-10.7798
咱二人	-10.7799
舍不得	-10.7801
这姑娘	-10.7802
既是如此	-10.7804
庄子	-10.7804
也不怕	-10.7807
功劳	-10.781
龙儿	-10.781
喘	-10.7811
心中一酸	-10.7816
厉声喝	-10.7817
恭	-10.7818
昨日	-10.7818
胜得	-10.7823
你要我	-10.7824
的手段	-10.7826
救你	-10.7828
大驾	-10.7829
一响	-10.7829
卑鄙	-10.7831
高大	-10.7833
倾听	-10.7833
把这	-10.7834
那时我	-10.7836
怎么了	-10.7836
劲风	-10.7837
东首	-10.7839
睡着了	-10.7841
刺到	-10.7843
见不到	-10.7844
运起	-10.7848
礼物	-10.785
转眼	-10.7851
一堆	-10.7851
根本	-10.7852
的姓名	-10.7853
传给	-10.7854
委	-10.7855
靠在	-10.7856
魔头	-10.7857
姓段的	-10.7857
占了	-10.7858
数十名	-10.786
桃实仙道	-10.7862
争斗	-10.7864
惊异	-10.7866
齐上	-10.7869
刺向	-10.7871
台下	-10.7877
不见得	-10.7879
送上	-10.7886
踢出	-10.7888
这老儿	-10.7888
服下	-10.7893
踏上	-10.7893
碗酒	-10.7897
不意	-10.7902
勒	-10.7906
武当派的	-10.7907
何人	-10.7909
妖	-10.7917
亦无	-10.792
本想	-10.7921
他本来	-10.7924
上岸	-10.7926
两柄	-10.7928
雾	-10.7933
等我	-10.7935
汝阳王	-10.7938
隔着	-10.794
妖女	-10.7941
显然是	-10.7941
尔	-10.7945
我教	-10.7946
击落	-10.7947
秀	-10.795
称赞	-10.795
出洞	-10.795
趋	-10.7953
瞧不出	-10.7953
有人说道	-10.7953
盟	-10.7954
迸	-10.7954
梅庄	-10.7954
辛	-10.7955
意料之外	-10.7956
海沙派	-10.7957
姥姥	-10.7957
王保保	-10.7957
过彦之	-10.7957
革	-10.7957
偶尔	-10.7958
谷底	-10.7959
迈步	-10.7959
弓箭	-10.7959
洪帮主	-10.796
示意	-10.7962
钢刀	-10.7962
就在此时	-10.7962
拔出长剑	-10.7963
睡觉	-10.7963
常常	-10.7963
玉像	-10.7965
美女	-10.7965
又过	-10.7967
何不	-10.7968
人马	-10.7969
大骂	-10.7975
的踪迹	-10.7975
饭菜	-10.7977
咱们走罢	-10.7978
去跟	-10.7981
她在	-10.7982
黑衣僧	-10.7982
毒计	-10.7989
一块大石	-10.7989
威风	-10.7991
伤得	-10.7991
哥	-10.7993
到这里	-10.7994
一麻	-10.7998
无碍	-10.7998
一粒	-10.7999
脖子	-10.7999
思念	-10.8002
化为	-10.8005
夺回	-10.8012
拿去	-10.8013
丹田中	-10.8018
出其不意	-10.8022
之日	-10.8025
不凡	-10.8029
定了	-10.8031
灌	-10.8032
挡格	-10.8034
打伤	-10.8038
学会	-10.804
已死	-10.8041
人间	-10.8043
手背	-10.8043
崆峒派	-10.8044
这四人	-10.8044
居士	-10.8045
船舱	-10.8046
一送	-10.8047
个圈子	-10.8049
在桃花岛上	-10.8052
三日	-10.8053
指力	-10.8055
白色	-10.8056
在山	-10.8057
尽头	-10.8058
早有	-10.8059
自此	-10.8072
第四十	-10.8072
袖子	-10.8083
武林中的	-10.8088
脏	-10.8089
全凭	-10.809
接住	-10.8098
关上	-10.81
高声叫	-10.8103
呕	-10.8103
家师	-10.8104
万里	-10.8105
倘	-10.8105
师母	-10.8114
之毒	-10.8114
拼	-10.8114
面颊	-10.8119
镜	-10.812
旋	-10.8122
统	-10.8123
十来	-10.8123
适	-10.8125
帽	-10.8126
死于	-10.8126
苦思	-10.8126
竭	-10.8126
完了	-10.8127
一弹	-10.8129
宾	-10.8129
帅	-10.813
鹿清笃	-10.8131
蛤蟆功	-10.8131
痊愈	-10.8132
向后跃开	-10.8132
流下泪来	-10.8133
媚	-10.8133
加快脚步	-10.8133
胡言乱语	-10.8133
喘息	-10.8133
深深一揖	-10.8133
凝思	-10.8134
利器	-10.8134
叠	-10.8134
教训	-10.8134
黎生	-10.8135
站了起来	-10.8135
于是将	-10.8135
宛如	-10.8135
郭夫人	-10.8136
玄慈方丈	-10.8136
勾结	-10.8136
周大哥	-10.8136
耽搁	-10.8136
绝不	-10.8137
众武士	-10.8137
金银	-10.8137
轻响	-10.8137
抖动	-10.8137
哭了出来	-10.8138
躺着	-10.8139
脸现	-10.8139
树木	-10.814
一个字	-10.814
一红	-10.814
圣教主	-10.8141
公然	-10.8142
倒似	-10.8142
苦楚	-10.8145
白雪	-10.8146
拿到	-10.8147
小舟	-10.8148
到头来	-10.8149
数寸	-10.815
长辈	-10.815
便此	-10.8151
怒喝	-10.8151
岂有	-10.8152
在桌上	-10.8152
立足	-10.8153
书法	-10.8157
牵着	-10.8161
那矮子	-10.8162
便不能	-10.8166
肩上	-10.8166
椅上	-10.8169
墓中	-10.8169
挥掌	-10.8171
同行	-10.8172
一只大	-10.8174
有这等	-10.8175
又怕	-10.8176
全部	-10.8176
绕到	-10.8177
了一层	-10.8177
送饭	-10.8179
冰冷	-10.818
叹	-10.8183
抱住了	-10.8196
凝目	-10.8197
泄漏	-10.8201
升起	-10.8202
这几天	-10.8205
他也	-10.8206
拱手道	-10.821
药物	-10.8212
给了	-10.8214
分心	-10.8215
冲着	-10.8218
轰	-10.8218
小儿	-10.8221
不喜欢	-10.8222
慕	-10.8222
使一招	-10.8223
奔向	-10.8223
这件	-10.8223
原来你	-10.8224
怜	-10.8227
那两个	-10.8229
师父的	-10.8229
手腕上	-10.8231
对答	-10.8231
草丛中	-10.8232
奸贼	-10.8233
身披	-10.8236
饶是	-10.8237
见师父	-10.8239
想起了	-10.8241
远远的	-10.8241
未见	-10.8242
着了	-10.8243
无情	-10.8251
你没	-10.8252
受到	-10.8252
街	-10.8253
名家	-10.8255
前胸	-10.8261
的那个	-10.8262
有难	-10.8271
奇妙	-10.8273
塔	-10.8274
放眼	-10.8277
的种种	-10.8279
难道他	-10.828
一段	-10.8285
一个时辰	-10.829
怎么又	-10.8292
谱	-10.8292
充	-10.8296
要是我	-10.8299
押	-10.8303
荒	-10.8304
拐	-10.8305
道姑	-10.8308
荣	-10.8308
漆	-10.8308
漏	-10.8309
晓	-10.8309
渡劫	-10.8309
颤动	-10.8309
倦	-10.831
无忌哥哥	-10.831
刘贵妃	-10.831
惊诧	-10.831
这些年来	-10.8311
薛	-10.8311
脂	-10.8311
轻飘飘的	-10.8311
牛鼻子	-10.8311
简捷	-10.8311
(	-10.8311
陷阱	-10.8311
恍然大悟	-10.8311
四哥	-10.8312
这当儿	-10.8312
星宿老仙	-10.8312
富贵	-10.8312
默然	-10.8313
情急之下	-10.8313
团团	-10.8314
过了好一会	-10.8314
红晕	-10.8314
凶恶	-10.8316
成婚	-10.8317
原来她	-10.8318
阵势	-10.8319
他左手	-10.8319
处境	-10.8319
反复	-10.8321
为她	-10.8321
问我	-10.8322
那中年人	-10.8323
使将出来	-10.8323
推举	-10.8324
嚷	-10.8324
难道还	-10.8328
却又如何	-10.8328
了这许多	-10.8331
叫他们	-10.8331
福州	-10.8332
好端端的	-10.8338
尸体	-10.834
烛火	-10.834
径自	-10.8341
真正的	-10.8341
他手中	-10.8343
日夜	-10.8348
虽只	-10.8349
吃的	-10.835
峨嵋派的	-10.8351
也当	-10.8351
不要脸	-10.8352
墙头	-10.8355
大功	-10.8357
抢先	-10.8359
如电	-10.8361
格开	-10.8361
好朋友	-10.8366
还想	-10.8366
中剑	-10.8367
原也	-10.8367
峰上	-10.8368
谦	-10.8369
又叫	-10.8369
有理	-10.8369
料来	-10.837
你却	-10.8376
谁说	-10.8379
惧	-10.838
下次	-10.838
终究是	-10.8381
但那	-10.8382
在想	-10.8382
写的	-10.8383
他和	-10.8384
祖师	-10.8386
伸掌	-10.8391
他身后	-10.8392
雁	-10.8394
大哭	-10.8395
当地	-10.8397
顾念	-10.8397
无事	-10.8398
却有	-10.8399
峰顶	-10.8403
不假	-10.8411
敷	-10.8413
虽不	-10.8415
手中的	-10.8415
偷了	-10.8415
黑暗之中	-10.8417
肚中	-10.8419
军官	-10.8422
若在	-10.8426
不中	-10.8428
颤抖	-10.843
怎可	-10.8435
如此厉害	-10.8437
俯	-10.8442
如是	-10.8446
你放心	-10.8447
拿住	-10.8452
三掌	-10.8453
他双手	-10.8457
抓到	-10.8462
杯酒	-10.8466
脚上	-10.8466
她心中	-10.8468
锐金旗	-10.847
爽	-10.8471
绊	-10.8475
规	-10.8478
▁’	-10.8479
这边	-10.8481
死的	-10.8485
诈	-10.8487
你怎地	-10.8487
都不	-10.8489
恋	-10.8489
先将	-10.849
一再	-10.849
里许	-10.8491
超	-10.8491
喜悦	-10.8491
绞	-10.8491
祖师婆婆	-10.8492
刮	-10.8492
桑土公	-10.8492
软猬甲	-10.8493
卫士	-10.8493
根基	-10.8493
赵煦	-10.8493
童百熊	-10.8493
光明磊落	-10.8493
)	-10.8493
老太婆	-10.8494
鲜血淋漓	-10.8494
顾忌	-10.8494
已到	-10.8495
站在一旁	-10.8495
逼迫	-10.8495
六猴儿	-10.8496
的念头	-10.8497
锋锐	-10.8498
微弱	-10.8499
囚禁	-10.85
一丝	-10.8502
来此	-10.8502
阿三	-10.8504
几个时辰	-10.8505
虎口	-10.8505
作甚	-10.8506
毒质	-10.8507
神像	-10.8508
轻视	-10.851
提及	-10.851
林家	-10.8512
九个	-10.8512
的剑招	-10.8513
服食	-10.8513
失声	-10.8514
抗拒	-10.8514
图形	-10.8516
喝问	-10.8519
把我	-10.8523
知道我	-10.8523
其意	-10.8525
山壁	-10.8525
然则	-10.8526
折了	-10.8526
一记	-10.8526
回转	-10.8527
便说	-10.8527
猴儿	-10.8532
圆寂	-10.8535
出手相救	-10.8535
听见了	-10.8538
停留	-10.854
随我	-10.854
香气	-10.8545
掌教	-10.8546
而坐	-10.8547
就没	-10.8548
南朝	-10.855
鞋子	-10.8552
救出	-10.8553
当面	-10.8556
宰了	-10.8558
快极	-10.856
你还是	-10.8564
二僧	-10.8565
熊	-10.8584
十六	-10.8584
都想	-10.859
这功夫	-10.8592
上峰	-10.86
崖边	-10.8602
心想这	-10.8608
门下弟子	-10.8613
待见	-10.8613
笼	-10.8615
的地方	-10.8616
倘若他	-10.8616
砖	-10.8617
镖头	-10.8619
日久	-10.8621
害你	-10.8624
的安危	-10.8624
出外	-10.8625
拾	-10.8627
羽箭	-10.8628
女的	-10.8629
谁也不	-10.8634
好汉子	-10.8636
口气	-10.8636
裹	-10.8636
你如	-10.8637
城外	-10.864
丐	-10.8643
不敬	-10.8646
孝	-10.8652
擅	-10.8653
骗你	-10.8654
去向	-10.8654
助他	-10.8654
听不到	-10.8655
乔	-10.8656
还得	-10.8657
南方	-10.8659
恐	-10.8665
创口	-10.8665
慧	-10.8667
肌肉	-10.8669
泄	-10.867
使的	-10.8671
舒	-10.8673
极好	-10.8673
越来越是	-10.8674
要和	-10.8675
杀了你	-10.8675
林朝英	-10.8676
宗维侠	-10.8677
粪	-10.8678
撒谎	-10.8678
焦躁	-10.8678
资质	-10.8678
的好手	-10.8678
唯恐	-10.8678
卷轴	-10.8678
不耐烦	-10.8678
伸手到	-10.8679
哲罗星	-10.8679
西夏武士	-10.8679
戒备	-10.868
容颜	-10.868
翼	-10.868
旗杆	-10.868
冰块	-10.868
敝寺	-10.868
积雪	-10.868
凶狠	-10.868
敝派	-10.8681
几条	-10.8682
戏弄	-10.8682
恐怕	-10.8682
仇怨	-10.8682
我还	-10.8683
微微一惊	-10.8683
机密	-10.8684
两位师太	-10.8684
秘密	-10.8685
性情	-10.8688
放你	-10.8689
收回	-10.8689
半步	-10.8689
张夫人	-10.869
到这里来	-10.8691
皇后	-10.8692
叫化	-10.8693
过了片刻	-10.8694
这几	-10.8694
笑了出来	-10.8695
心中怦怦乱跳	-10.8695
二老	-10.8697
齐声惊呼	-10.8698
偷听	-10.8699
说过的话	-10.87
地势	-10.8707
可知	-10.8707
顿足	-10.8713
皇宫	-10.8714
舱中	-10.8716
城门	-10.872
小事	-10.8721
一探	-10.8729
甚是得意	-10.873
所使	-10.8734
此外	-10.8734
决不是	-10.8737
的用意	-10.8737
点儿	-10.8742
已成	-10.8743
冷笑一声	-10.8745
凡是	-10.8745
不合	-10.8747
重行	-10.8747
极难	-10.875
和那	-10.8755
寻到	-10.8756
凶手	-10.8759
起伏	-10.876
决计不会	-10.8765
去吧	-10.8767
缚住	-10.8769
厉声	-10.877
走过	-10.8772
你做	-10.8774
认定	-10.8774
恕	-10.8778
青城派的	-10.878
说着向	-10.8782
也只有	-10.8784
不久便	-10.8787
正当	-10.8787
茶花	-10.8789
那只	-10.8789
可爱	-10.879
的心意	-10.879
我才不	-10.8792
搂	-10.8795
是从	-10.8796
讯	-10.8797
可有	-10.8802
但此刻	-10.8808
却非	-10.8809
柯	-10.8809
使者	-10.8809
要死	-10.881
烛	-10.8812
还会	-10.8815
打断	-10.8817
惟	-10.8821
报讯	-10.8822
治病	-10.8823
级	-10.8827
求见	-10.8831
数百年	-10.8839
的一个	-10.884
了自己	-10.8841
街上	-10.8842
军马	-10.8842
铸	-10.8843
师祖	-10.8843
看看	-10.8847
大急	-10.8852
知道自己	-10.8853
及得上	-10.8854
宾客	-10.8856
释	-10.8859
污	-10.886
晋	-10.8861
字诀	-10.8861
没一个	-10.8864
彭	-10.8864
淫	-10.8865
倔强	-10.8866
阅	-10.8866
蓉二人	-10.8866
贾布	-10.8866
恭谨	-10.8867
男子汉大丈夫	-10.8867
回过身来	-10.8867
惶恐	-10.8867
着急	-10.8867
死里逃生	-10.8867
万劫谷	-10.8867
牛家村	-10.8867
乔大爷	-10.8867
徐达	-10.8868
猛烈	-10.8868
葵花宝典	-10.8868
好奇心起	-10.8868
斑	-10.8868
舅妈	-10.8868
木筏	-10.8869
严密	-10.8869
福建	-10.8869
立誓	-10.887
掉在地下	-10.887
守御	-10.8871
欺骗	-10.8872
身在半空	-10.8872
他手臂	-10.8873
主持	-10.8873
少室山	-10.8873
桃花岛主	-10.8874
加之	-10.8875
酒菜	-10.8875
郭姑娘	-10.8876
脑门	-10.8876
护送	-10.8877
人数	-10.8877
厅中	-10.8877
非凡	-10.8878
无聊	-10.8878
甚么都	-10.8878
扇子	-10.8878
盒	-10.8879
原因	-10.8881
光芒	-10.8882
干了	-10.8882
爱惜	-10.8883
出家人	-10.8887
腰带	-10.8888
冒犯	-10.8889
法儿	-10.8889
那农夫	-10.8892
治好	-10.8894
由他	-10.8895
舍命	-10.8897
门前	-10.8898
教了	-10.8899
部位	-10.8902
冻	-10.8905
小孩子	-10.8905
荒岛	-10.8909
那老妇	-10.8911
的讯息	-10.8913
就这么	-10.8914
嫁了	-10.8916
一十	-10.8919
只不过是	-10.8921
随时	-10.8922
长长的	-10.8925
不通	-10.8926
睡了	-10.8927
作声	-10.8931
不爱	-10.8932
三四	-10.8937
和令狐冲	-10.8937
个大	-10.8943
不分	-10.8951
第二次	-10.8951
也可	-10.8952
禅	-10.8953
这只	-10.8956
都觉	-10.8961
怕了	-10.8962
到底是谁	-10.8965
室里	-10.897
时分	-10.8971
一想到	-10.8973
记起	-10.8974
大战	-10.8976
也决计	-10.8978
这三	-10.8986
呜呜	-10.8987
你妈妈	-10.8987
三枚	-10.8989
不打紧	-10.8989
水面	-10.899
心地	-10.8991
总有	-10.8991
良机	-10.8992
荒山	-10.8995
瞧来	-10.8995
跃到	-10.8998
急攻	-10.9
的姑娘	-10.9004
不善	-10.9004
牵了	-10.9007
来攻	-10.9007
好极	-10.9009
黑木崖	-10.9009
叫了出来	-10.9009
族	-10.9013
她虽	-10.9014
既知	-10.9014
出气	-10.9015
洪七公笑道	-10.9023
京	-10.9024
束	-10.9028
那女童道	-10.9031
真人	-10.9031
我瞧你	-10.9033
甚么地方	-10.9033
大王	-10.9034
我在这里	-10.9035
但想到	-10.904
谓	-10.904
焉	-10.904
骇	-10.9041
占上风	-10.9045
台上	-10.9047
窝	-10.9049
竟如	-10.9049
拍手笑道	-10.9051
禀	-10.9054
僵尸	-10.9055
护身	-10.9055
丸	-10.9056
纳	-10.9056
拙	-10.9057
启	-10.9057
偶	-10.9058
巡	-10.9058
聚贤庄	-10.9058
粉身碎骨	-10.9059
呵呵	-10.9059
阳顶天	-10.9059
焦木	-10.9059
恭敬	-10.906
甘宝宝	-10.906
跃起身来	-10.906
一统江湖	-10.906
差遣	-10.906
膻中穴	-10.906
屠龙宝刀	-10.9061
隐约	-10.9061
一动不动	-10.9062
绝艺	-10.9062
三个人	-10.9062
西瓜	-10.9063
掌上	-10.9064
阴阳	-10.9064
驾临	-10.9064
变得	-10.9067
我又	-10.9067
鹰	-10.9068
寻访	-10.9068
伤我	-10.9069
应声	-10.9071
太湖	-10.9071
轮子	-10.9073
小辈	-10.9073
查问	-10.9075
饿死	-10.9075
身周	-10.9076
手势	-10.9077
你这般	-10.9078
二女	-10.9079
铁门	-10.908
悉	-10.908
正宗	-10.908
传令	-10.908
十余里	-10.9081
鲨鱼	-10.9084
有几	-10.9086
溪水	-10.9087
迷迷糊糊的	-10.9087
甘愿	-10.9087
翻了	-10.9089
推门	-10.9089
两股	-10.9089
也均	-10.909
也即	-10.9093
和自己	-10.9093
想不出	-10.9095
跟他说	-10.9096
听得清清楚楚	-10.9097
一点也不	-10.9098
虽说	-10.9102
两招	-10.9107
明教的	-10.9108
竟已	-10.9109
大惊之下	-10.9109
邪门	-10.911
倒也不	-10.9112
安慰	-10.9115
心血	-10.9116
▁......	-10.9117
舟中	-10.9117
长刀	-10.9117
另一名	-10.9118
定当	-10.912
孤身	-10.9123
饶你	-10.9123
只知	-10.9124
遗书	-10.9125
找个	-10.9126
下场	-10.9126
清清楚楚的	-10.9127
一跳	-10.913
的手法	-10.9134
四十	-10.9138
痛快	-10.9139
外边	-10.914
非但	-10.914
说什么也	-10.9143
长鞭	-10.9147
小小年纪	-10.915
逐出	-10.9152
石门	-10.9154
数十丈	-10.9155
动身	-10.9156
有甚么好	-10.9158
这恶贼	-10.9159
为甚么要	-10.916
转向	-10.916
踪	-10.9161
他却	-10.9163
两块	-10.9163
闯进	-10.9166
步法	-10.9172
首领	-10.9173
恭喜	-10.9177
近身	-10.918
他背心	-10.9181
可说是	-10.9182
逝	-10.9183
又没	-10.9186
昏迷	-10.9192
玉蜂	-10.9196
挂在	-10.9196
来着	-10.9196
诛	-10.9197
说着将	-10.9203
蒲团	-10.9206
骇然	-10.9206
求你	-10.9206
可笑	-10.9208
一大块	-10.921
猛虎	-10.9212
树皮	-10.9215
可能	-10.9216
约有	-10.9219
买了	-10.9221
大殿	-10.9221
却似	-10.9224
字迹	-10.9227
的道理	-10.9231
斗到	-10.9233
急叫	-10.9238
豹	-10.9238
这家伙	-10.9239
极强	-10.9239
你奶奶的	-10.9244
不认	-10.9247
材	-10.9247
颠	-10.9247
盲	-10.9248
陆大有道	-10.9248
慌	-10.925
殿中	-10.925
莲	-10.925
还有什么	-10.925
翅	-10.9251
预	-10.9252
狐	-10.9252
多想	-10.9252
仅	-10.9253
繁	-10.9254
归云庄	-10.9254
一痛	-10.9254
掀	-10.9254
後	-10.9255
化功大法	-10.9255
编	-10.9255
查察	-10.9255
搅	-10.9256
郁光标	-10.9256
庆	-10.9256
冰凉	-10.9256
灵狐	-10.9256
千秋万载	-10.9256
弟妹	-10.9256
镶	-10.9256
这会儿	-10.9256
畏惧	-10.9256
疲累	-10.9257
武青婴	-10.9257
着实不少	-10.9257
变幻	-10.9257
辽军	-10.9257
污泥	-10.9258
明明白白	-10.9258
却也不	-10.9258
风太师叔	-10.9258
大异	-10.9258
乱成一团	-10.9259
拼命	-10.9259
拉扯	-10.9259
饮食	-10.926
巨石	-10.926
轻薄	-10.9261
激斗	-10.9262
几岁	-10.9262
来来来	-10.9263
叫喊	-10.9263
今儿	-10.9265
门规	-10.9265
流血	-10.9267
娶了	-10.9269
石头	-10.927
勒马	-10.9271
三剑	-10.9274
或者	-10.9279
理睬	-10.9281
军中	-10.9282
一酸	-10.9282
从小	-10.9282
解了	-10.9283
要请	-10.9283
大批	-10.9283
拍拍	-10.9283
江湖上的	-10.9284
逼我	-10.9284
的时候	-10.9284
感动	-10.9286
杖头	-10.9288
二百	-10.9288
转身便走	-10.9288
示下	-10.9289
全家	-10.9289
人手	-10.929
心念	-10.9291
一丛	-10.9291
缓步	-10.9291
提剑	-10.9291
下毒手	-10.9292
马大元	-10.9292
而入	-10.9295
就可	-10.9295
柔软	-10.9296
嘶	-10.9298
段誉笑道	-10.9298
两边	-10.93
左腕	-10.9301
的老者	-10.9301
你听	-10.9302
退了	-10.9304
想法子	-10.9305
的么	-10.9307
我却	-10.9309
援手	-10.9311
黑剑	-10.9319
了个空	-10.9323
暗暗好笑	-10.9325
是假的	-10.9329
在那	-10.933
自小	-10.9333
岸上	-10.9339
不走	-10.934
一沉	-10.9344
法名	-10.9345
那条	-10.9352
有一位	-10.9353
的父亲	-10.9354
叫得	-10.9354
已从	-10.9361
庙中	-10.9362
断剑	-10.9364
卒	-10.9367
千万别	-10.9373
虽已	-10.9375
方得	-10.9378
称呼	-10.9379
回复	-10.938
入门	-10.9398
雕儿	-10.9401
一世	-10.9401
上山来	-10.9403
策	-10.9404
身侧	-10.9408
好教	-10.9409
这是我	-10.9409
得能	-10.941
便如是	-10.9411
决不肯	-10.9411
幸得	-10.9411
冲入	-10.9413
店伴	-10.9415
抄	-10.9415
一按	-10.9416
直刺	-10.9416
你干么	-10.9417
尼	-10.9417
裤	-10.9417
毒气	-10.9417
这少女	-10.9419
的不是	-10.9419
抚摸	-10.9419
不肯说	-10.942
哪里还有	-10.9422
起初	-10.9425
皆是	-10.9426
坐了	-10.9428
一物	-10.9429
大出意料之外	-10.943
他便	-10.9431
赶快	-10.9431
笑得	-10.9433
逼近	-10.9435
陡然间	-10.9437
青城	-10.9438
双眉	-10.9439
大高手	-10.9439
瞪视	-10.944
昏晕	-10.944
郎	-10.9442
累了	-10.9443
畏	-10.9446
浑厚	-10.9448
也无法	-10.945
口音	-10.9451
连连点头	-10.9451
徐	-10.9451
叙	-10.9453
摩	-10.9453
那小鬟	-10.9453
的情状	-10.9453
政	-10.9453
打个	-10.9454
迈	-10.9454
将信将疑	-10.9455
方人智	-10.9455
刘处玄	-10.9455
尊姓大名	-10.9455
太监	-10.9455
武林至尊	-10.9455
乌龟	-10.9455
剑光	-10.9455
咳	-10.9456
源源	-10.9456
合十	-10.9456
梁长老	-10.9457
青袍	-10.9457
的脸色	-10.9457
笑了笑	-10.9457
南帝	-10.9458
宋朝	-10.9459
他这	-10.9459
显示	-10.9459
一个踉跄	-10.9461
一般无异	-10.9461
这柄	-10.9463
骑兵	-10.9463
一揖	-10.9464
到哪里去	-10.9466
瞪着	-10.9466
怒火	-10.9467
药兄	-10.9469
抢攻	-10.9469
上乘武功	-10.9469
假意	-10.947
咱们再	-10.947
却听	-10.9471
边上	-10.9471
所擒	-10.9472
清醒	-10.9473
险恶	-10.9473
茅屋	-10.9475
盘算	-10.9476
落败	-10.9476
令爱	-10.9477
看出	-10.9477
身体	-10.9479
下杀手	-10.9479
满身	-10.948
那少妇	-10.9482
梅剑	-10.9484
八九	-10.9489
以下	-10.9494
君子剑	-10.9496
其间	-10.9501
告辞	-10.9509
也不懂	-10.951
决不致	-10.951
陷入	-10.951
这张	-10.9511
着恼	-10.9512
离地	-10.9514
岂可	-10.9515
在何处	-10.9515
所言	-10.9519
坐起	-10.9519
金杵	-10.9522
得快	-10.9522
难怪	-10.9523
也不致	-10.9524
唯有	-10.9524
纵起	-10.9525
所为	-10.9525
这小	-10.9526
相处	-10.9528
瞧不起	-10.9531
三十六	-10.9532
开口说话	-10.9534
潜心	-10.9537
有心	-10.9539
你将	-10.954
脸蛋	-10.9542
树后	-10.9543
夸	-10.9543
七日	-10.9544
害了	-10.9545
水性	-10.9545
这么多	-10.9547
呆呆	-10.9549
一伸手	-10.9553
惨死	-10.9553
结成	-10.956
醒来	-10.9561
缚在	-10.9561
我师	-10.9561
死活	-10.9564
远不及	-10.9564
斜眼	-10.9566
一杯	-10.9567
还了	-10.9568
命人	-10.957
开门	-10.957
与之	-10.9575
声名	-10.9576
乍	-10.9578
叫化子	-10.9578
疾向	-10.9582
站起来	-10.9586
来救	-10.9587
万岁	-10.9592
无能	-10.9593
智光	-10.9595
避开了	-10.9599
气功	-10.9599
又如何	-10.9602
劲道	-10.9603
身为	-10.9603
颤	-10.9604
数百人	-10.9605
真力	-10.9605
便须	-10.9606
一事	-10.9621
魔教的	-10.9621
无一	-10.9621
身中	-10.9623
侵	-10.9625
八个	-10.9626
的少女	-10.9627
也不禁	-10.9628
眼眶	-10.9629
师父师娘	-10.963
取笑	-10.9631
我倒	-10.9631
借力	-10.9631
得悉	-10.9631
本因	-10.9633
攻打	-10.9633
望见	-10.9634
刺死	-10.9635
人声	-10.9637
三只	-10.9637
绝伦	-10.9638
两句	-10.9641
解下	-10.9643
潮	-10.9644
见我	-10.9645
景	-10.9646
瞒	-10.9647
两大	-10.9647
一幅	-10.9649
你过来	-10.9649
蛛	-10.9653
锥	-10.9655
姿	-10.9655
逸	-10.9656
昂	-10.9656
拜师	-10.9657
哑	-10.9657
当头	-10.9657
绰	-10.9658
登时将	-10.9659
天山童姥	-10.9659
惊心动魄	-10.9659
境界	-10.9659
杨过见她	-10.9659
小女子	-10.9659
呵	-10.9659
无怨无仇	-10.9659
我辈	-10.9659
包袱	-10.9659
统率	-10.9659
歇歇	-10.9659
残忍	-10.9659
念念不忘	-10.9659
李志常	-10.9659
芙儿	-10.966
臭小子	-10.966
诀窍	-10.966
桅杆	-10.966
烛台	-10.966
无崖子	-10.966
玄苦大师	-10.966
媳妇儿	-10.966
叔父	-10.966
八卦	-10.966
勉力	-10.966
价	-10.966
刘某	-10.966
棺材	-10.9661
泛	-10.9661
瞧我	-10.9661
袍子	-10.9661
相逢	-10.9662
转过了头	-10.9662
菜肴	-10.9662
的妻子	-10.9663
禀明	-10.9663
挣脱	-10.9664
你对我	-10.9664
丐帮帮众	-10.9665
洞主	-10.9665
迎敌	-10.9665
筷子	-10.9665
无赖	-10.967
小心了	-10.9673
食物	-10.9674
喝骂	-10.9676
为妻	-10.9679
震动	-10.9679
得好	-10.968
看去	-10.9684
际	-10.9685
比拚	-10.9687
小小的	-10.9687
一撑	-10.9689
一线	-10.9689
逍遥	-10.9689
的号令	-10.9689
老人家	-10.969
可是你	-10.9692
倒不是	-10.9692
冰山	-10.9693
暗藏	-10.9695
倒在地	-10.9695
轻灵	-10.9696
数百年来	-10.9696
肘	-10.9697
’?”	-10.9699
请了	-10.9701
匹马	-10.9702
昨天	-10.9703
摔下	-10.9704
之首	-10.9704
后辈	-10.9704
多时	-10.9704
那些人	-10.9709
剩下	-10.9709
白发	-10.9711
报了	-10.9713
动武	-10.9715
右腕	-10.9718
去世	-10.9719
两派	-10.9723
了片刻	-10.9727
不提	-10.9728
飘飘	-10.9728
他与	-10.9729
石板	-10.9729
要杀我	-10.9729
隐没	-10.9731
到哪里	-10.9731
望望	-10.9733
猜到	-10.9734
倒在	-10.9736
却不能	-10.9737
大路	-10.9738
虽非	-10.9739
不屑	-10.9742
躺	-10.9751
十三	-10.9755
偷学	-10.9756
瞪	-10.9757
六兄弟	-10.976
听到他	-10.9761
十个	-10.9766
美丽	-10.9767
均感	-10.9767
说甚么也	-10.9769
答允了	-10.9779
光头	-10.978
他父亲	-10.9782
实无	-10.9782
为什么要	-10.9784
尖刀	-10.9789
没什么	-10.979
的脑袋	-10.9797
了两下	-10.9797
前赴	-10.9801
这儿	-10.9802
后山	-10.9806
比你	-10.9808
熬	-10.9809
一二	-10.981
不相干	-10.9813
尖声	-10.9814
来不及	-10.9816
我真	-10.9818
尤	-10.9819
这声音	-10.982
一阵剧痛	-10.9822
想必是	-10.9822
的声音说道	-10.9825
埋	-10.9828
而立	-10.983
是好人	-10.9831
手帕	-10.9835
半空中	-10.9835
老人	-10.9838
你给我	-10.9839
扰	-10.9842
却只	-10.9843
逊	-10.9845
转念又想	-10.9847
羽	-10.9849
每天	-10.9855
下峰	-10.9857
实不知	-10.9857
抬了	-10.9859
还未	-10.9859
岭	-10.9862
装作	-10.9864
蕴	-10.9866
泊	-10.9866
李延宗	-10.9867
又惊又	-10.9867
慷慨	-10.9867
不怀好意	-10.9867
淋	-10.9867
侮辱	-10.9867
掌钵龙头	-10.9867
泻	-10.9867
撩	-10.9868
祭	-10.9868
自相残杀	-10.9868
四弟	-10.9868
冷汗	-10.9868
玄渡	-10.9869
合什	-10.9869
一个小	-10.9869
冯默风	-10.9869
韩夫人	-10.9871
止歇	-10.9871
与你	-10.9871
宋长老	-10.9871
绸带	-10.9872
到他	-10.9872
四川	-10.9872
关切	-10.9873
幸亏	-10.9873
恩公	-10.9873
但不知	-10.9875
小指	-10.9876
的却是	-10.9879
激荡	-10.988
明月	-10.988
罕有	-10.988
猛击	-10.9881
打扰	-10.9881
亲近	-10.9881
反弹	-10.9882
深夜	-10.9883
火堆	-10.9883
成一团	-10.9884
一株大树	-10.9884
之状	-10.9884
相避	-10.9884
在前	-10.9885
之极的	-10.9885
酒碗	-10.9886
一辈	-10.9886
岳不群夫妇	-10.9887
襄阳城	-10.9887
接应	-10.9887
伤痕	-10.9887
明言	-10.989
贼子	-10.9891
玄生	-10.9892
却都	-10.9893
小王	-10.9894
给人家	-10.9894
碎裂	-10.9896
营帐	-10.9896
指教	-10.9896
头陀	-10.9897
叫唤	-10.99
争夺	-10.9901
人身	-10.9902
有多少	-10.9907
如何不	-10.9908
我知道	-10.9911
逼他	-10.9911
退了一步	-10.9911
在地上	-10.9913
那老者道	-10.9913
这几日	-10.9916
后跃	-10.9917
未必能	-10.992
的孩子	-10.9921
爹爹说	-10.9922
找你	-10.9923
小师父	-10.9924
去取	-10.9924
书信	-10.9925
忍住	-10.9927
向你	-10.9928
样子	-10.9931
连环	-10.9931
居住	-10.9933
外号	-10.9936
落入了	-10.9936
不难	-10.9936
你到	-10.9938
佛经	-10.9939
倒在地下	-10.9942
长发	-10.9943
的脾气	-10.9944
攻敌	-10.9945
要做	-10.9948
你身上	-10.9949
右脚	-10.9951
快马	-10.9953
我叫你	-10.9953
年幼	-10.9953
在大理	-10.9954
去做	-10.9954
是真的	-10.9955
停住	-10.996
这份	-10.9961
收起	-10.9961
公公	-10.9962
直击	-10.9965
直冲	-10.9966
又从	-10.9966
相差	-10.9968
安好	-10.9973
三百	-10.9976
见怪	-10.9976
一试	-10.9977
爱女	-10.9978
多有	-10.9979
十余年来	-10.9981
两响	-10.9982
点点	-10.9984
只管	-10.9984
各路	-10.9991
杀手	-10.9991
潭	-10.9992
请各位	-10.9994
攻势	-10.9995
说你	-10.9996
要不要	-10.9997
倚在	-10.9999
扑到	-11.0001
却被	-11.0002
赢了	-11.0002
却将	-11.0004
再有	-11.0006
吟	-11.0012
卸	-11.0013
因之	-11.0014
回头向	-11.0016
骂了	-11.0018
舒服	-11.0019
瞧那	-11.003
愿意	-11.0038
至今	-11.0041
一代	-11.0048
处穴道	-11.0049
却给	-11.0049
定能	-11.0051
方便	-11.0052
吃惊	-11.0052
不允	-11.0053
别让	-11.0055
用处	-11.0059
都能	-11.0059
天空	-11.006
乡下	-11.0061
所发	-11.0062
崩	-11.0063
若说	-11.0069
席上	-11.0069
过于	-11.0071
法王道	-11.0072
急了	-11.0074
五行旗	-11.0075
宝贝	-11.0076
祝	-11.0078
阿骨打	-11.0078
乾坤大挪移	-11.0079
挥刀	-11.0079
特异	-11.0079
耶律燕	-11.0079
逗	-11.008
妙风使	-11.008
泽	-11.008
人多势众	-11.0081
扁	-11.0081
罗人杰	-11.0081
以彼之道	-11.0081
一败涂地	-11.0081
形状	-11.0081
南院大王	-11.0081
行侠仗义	-11.0082
乳	-11.0082
闺女	-11.0082
无奈	-11.0082
圆音	-11.0082
喘气	-11.0082
棋盘	-11.0083
挑战	-11.0083
嗤的一声响	-11.0084
梅花	-11.0084
招术	-11.0084
同伴	-11.0085
行到	-11.0086
气愤	-11.0086
铁轮	-11.0086
冲虚道长	-11.0088
回想	-11.0088
你和	-11.0089
由得	-11.0089
遗命	-11.0089
我怎么	-11.0089
之策	-11.009
一个少女	-11.0091
坐了下来	-11.0091
都被	-11.0091
余暇	-11.0092
本人	-11.0092
愈是	-11.0094
左手一挥	-11.0096
未得	-11.0097
半年	-11.0099
怒极	-11.0101
的本领	-11.0104
那便如何	-11.0104
塞在	-11.0105
而论	-11.0107
势道	-11.011
片刻间便	-11.0111
必能	-11.0112
点去	-11.0113
这一着	-11.0116
助我	-11.0119
你怎知道	-11.0121
那怎么办	-11.0122
着手	-11.0128
昆仑派的	-11.0132
▁下	-11.0133
相待	-11.0136
郭靖夫妇	-11.0136
拚斗	-11.0137
难听	-11.0139
射来	-11.014
指望	-11.0147
你可知	-11.0147
一曲	-11.0147
之间的	-11.0148
这一生	-11.015
去寻	-11.0151
一个月	-11.0151
道家	-11.0151
一扯	-11.0154
架开	-11.0156
的老	-11.0156
以至	-11.0161
猛向	-11.0162
来接	-11.0167
子孙	-11.017
有这么	-11.0172
冬	-11.0173
一直在	-11.0173
这座	-11.0175
迟了	-11.0176
诸将	-11.018
吃得	-11.0181
好孩子	-11.0181
不救	-11.0181
店中	-11.0183
我女儿	-11.0185
我听	-11.0186
在华山	-11.019
该当如何	-11.0197
两人都	-11.02
懒	-11.0211
还给	-11.0212
松手	-11.0213
死尸	-11.0219
结下	-11.0221
有如此	-11.0221
烧了	-11.0227
脸皮	-11.0228
树林中	-11.0234
一松	-11.0234
大车	-11.0235
不受	-11.0236
驼子	-11.0237
捣乱	-11.0238
学到	-11.0241
团	-11.0243
急欲	-11.0247
的劲力	-11.025
谁也没	-11.025
手肘	-11.0253
发射	-11.0254
料不到	-11.0256
说着便	-11.0258
再练	-11.026
赠	-11.026
委屈	-11.0264
对这	-11.0266
气绝	-11.0266
着他	-11.0268
又即	-11.0268
接口	-11.0272
强劲	-11.0273
箫	-11.0277
有话	-11.0277
酸麻	-11.0279
这批	-11.028
付	-11.0281
只要你	-11.0281
机会	-11.0284
你已	-11.0289
洒	-11.029
不容	-11.0292
川	-11.0293
洁	-11.0294
咒	-11.0294
另一人	-11.0295
的手指	-11.0295
脸上微微一红	-11.0296
七弟	-11.0296
锦	-11.0297
典	-11.0297
在意	-11.0297
歹毒	-11.0297
盾牌	-11.0297
你若不	-11.0297
手足无措	-11.0297
憔悴	-11.0297
袈裟	-11.0297
舒畅	-11.0297
伸了伸舌头	-11.0297
韩姬	-11.0298
凄凉	-11.0298
唔	-11.0298
旺	-11.0298
呛啷啷	-11.0298
是何	-11.0298
严峻	-11.0298
武功卓绝	-11.0298
隐秘	-11.0298
盈	-11.0298
旁门左道	-11.0298
铁冠道人	-11.0299
段正明	-11.0299
屋角	-11.0299
轩	-11.0299
瞪了一眼	-11.0299
我也是	-11.0299
开玩笑	-11.0299
空见大师	-11.03
妖法	-11.03
嘴角	-11.03
他奶奶的	-11.03
从来没见过	-11.03
抢上前去	-11.03
天下无敌	-11.0301
转眼间	-11.0301
一黑	-11.0301
进入	-11.0302
腰里	-11.0302
任先生	-11.0302
性命难保	-11.0303
惨然	-11.0303
玄痛	-11.0303
小林子	-11.0303
反抗	-11.0304
颠倒	-11.0304
保全	-11.0304
峭壁	-11.0305
小孩儿	-11.0305
呼的一掌	-11.0306
哀求	-11.0306
叛军	-11.0307
一跃而起	-11.0307
颜面	-11.0307
两手	-11.0308
梁子	-11.0311
良心	-11.0312
追兵	-11.0313
的衣衫	-11.0313
逃得	-11.0315
苦大师	-11.0317
首先	-11.0318
情深	-11.0318
六师弟	-11.032
少说也有	-11.0321
万万不可	-11.0322
这个人	-11.0323
所制	-11.0324
奔得	-11.0326
微有	-11.0326
当可	-11.0327
劳德诺道	-11.0328
晕去	-11.0329
的物事	-11.033
我么	-11.0331
交出	-11.0331
绝顶	-11.0331
做的	-11.0331
之声不绝	-11.0332
如此了得	-11.0333
他口中	-11.0336
心怀	-11.0336
之约	-11.0337
低声问道	-11.0341
石块	-11.0342
本身	-11.0346
农家	-11.0347
不宜	-11.0349
一搭	-11.035
囊	-11.0352
相思	-11.0353
山坡上	-11.0353
交好	-11.0354
不配	-11.0355
喧哗	-11.0356
便只	-11.0358
你猜	-11.0359
光亮	-11.036
读书	-11.0361
吟道	-11.0361
掉下	-11.0365
却不敢	-11.0368
四派	-11.0368
这几下	-11.0368
总得	-11.037
猛兽	-11.0372
做人	-11.0373
明王	-11.0375
国师	-11.0375
热血	-11.0378
渔人	-11.0382
一抓	-11.0384
那部	-11.0386
屋外	-11.0387
水手	-11.0389
脸面	-11.039
任你	-11.0395
喀喇	-11.0395
再斗	-11.0396
花香	-11.0398
东方	-11.0401
足见	-11.0405
一步步的	-11.0405
瓜子	-11.0408
而笑	-11.0411
书画	-11.0414
伤你	-11.0414
伸手便	-11.0415
你跟我	-11.0423
呛啷	-11.0423
黄衫女子	-11.0427
上台	-11.0428
斥	-11.0428
灭了	-11.0433
直如	-11.0434
一步步	-11.0434
吻	-11.0435
倘若你	-11.044
说几句	-11.044
以上	-11.0442
就算是	-11.0442
瞧了	-11.0443
齐道	-11.0443
花丛	-11.0446
无影无踪	-11.0447
佩	-11.0451
递出	-11.0453
嗔	-11.0453
一圈	-11.0465
连问	-11.0469
骑了	-11.0471
金人	-11.0475
木屋	-11.0476
砍了	-11.0476
几十	-11.0478
七兄	-11.048
希奇	-11.0485
用力一	-11.0485
过意不去	-11.0492
千余	-11.0492
酸软	-11.0493
一批	-11.0495
前行	-11.0496
转念一想	-11.0498
坏事	-11.0499
身子已	-11.0503
谢前辈	-11.0505
辣	-11.0506
拇指	-11.0506
向内	-11.0508
动了	-11.0509
疾冲	-11.0511
深湛	-11.0513
▁子	-11.0513
穆	-11.0514
惶	-11.0515
界	-11.0515
疲	-11.0517
类	-11.0517
尿	-11.0517
蝴蝶谷	-11.0518
鉴	-11.0518
强忍	-11.0518
胎	-11.0519
狡猾	-11.0519
太皇太后	-11.0519
鲁莽	-11.0519
次日清晨	-11.0519
货	-11.052
森然	-11.052
耕	-11.052
决计不	-11.052
跪倒在地	-11.052
繁复	-11.052
博尔朮	-11.052
一男一女	-11.052
蜡烛	-11.052
疑团	-11.052
一拥而上	-11.0521
陆柏	-11.0521
叹了一口气	-11.0521
英俊	-11.0521
蹊跷	-11.0521
抵敌	-11.0521
北丐	-11.0521
臂膀	-11.0521
责备	-11.0522
计议	-11.0522
仓卒	-11.0522
疾奔	-11.0522
差不多	-11.0522
脚底	-11.0522
血痕	-11.0522
慌乱	-11.0522
只在	-11.0523
并不答话	-11.0524
貂儿	-11.0524
定闲	-11.0524
性命不保	-11.0524
从旁	-11.0524
原委	-11.0525
扰乱	-11.0525
二丐	-11.0525
这路剑法	-11.0525
绿色	-11.0526
冷谦	-11.0527
劲敌	-11.0529
哇的一声	-11.0529
青布	-11.0529
又是好笑	-11.053
及早	-11.0531
远去	-11.0536
险些儿	-11.0536
板门	-11.0537
裤子	-11.0537
武功虽高	-11.0538
你叫	-11.0541
千金	-11.0542
每当	-11.0544
回手	-11.0545
白须	-11.0545
年纪轻轻	-11.0545
图画	-11.0547
画中	-11.0548
矮小	-11.0548
凉亭	-11.0548
那胖子	-11.055
后来怎样	-11.0552
真好	-11.0552
那才	-11.0553
飞来	-11.0555
之德	-11.0559
正欲	-11.056
无双	-11.0561
骨头	-11.0561
眼见她	-11.0562
接任	-11.0562
难题	-11.0566
楚王	-11.0568
洞穴	-11.0569
跟人	-11.0569
不尽	-11.0572
我身上	-11.0573
再要	-11.0573
怪物	-11.0576
尚自	-11.0579
追逐	-11.0579
海水	-11.0581
裘千仞道	-11.0581
我早	-11.0584
高深	-11.0585
一起去	-11.0586
未及	-11.0587
谁要你	-11.0589
小腿	-11.0591
上天	-11.0591
抓住他	-11.0594
老头	-11.0596
出城	-11.0597
横过	-11.0601
’!”	-11.0606
背影	-11.0611
北斗阵	-11.0611
夺得	-11.0613
厨房	-11.0613
不敢当	-11.0615
出了一	-11.0617
怀疑	-11.0623
之境	-11.063
取得	-11.0636
既无	-11.0637
不给	-11.0638
倍	-11.0642
秋	-11.0646
缩身	-11.0646
顶门	-11.0648
一等	-11.0649
一听之下	-11.0649
门中	-11.0657
送出	-11.0657
当着	-11.0663
那女郎道	-11.0668
略一	-11.0668
二十余年	-11.0671
你爱	-11.0672
害死的	-11.0674
罗汉	-11.0674
岳父	-11.0674
都会	-11.0675
割断	-11.0677
小道士	-11.0677
于她	-11.0678
却始终	-11.0682
卑鄙无耻	-11.0682
说谎	-11.0682
的便是	-11.0684
张三丰道	-11.0688
糟	-11.0689
我本来	-11.0689
不待	-11.0691
我师哥	-11.0692
活了	-11.0693
爬上	-11.0693
都不禁	-11.0703
只怕要	-11.0707
这姓	-11.0708
无怪	-11.0708
武林之中	-11.0709
山坳	-11.0711
返	-11.0712
经中	-11.0716
这小贼	-11.0717
椅子	-11.0719
那倒	-11.0722
便不再	-11.0724
我怎能	-11.0725
影子	-11.0726
上升	-11.0727
桌子	-11.073
趣	-11.0732
不问	-11.0734
从不	-11.0734
虽多	-11.0734
黄色	-11.0736
冈	-11.0737
五百	-11.0737
筷	-11.0741
肃	-11.0742
五派	-11.0742
临敌	-11.0742
使个眼色	-11.0744
一碰	-11.0744
匪夷所思	-11.0744
录	-11.0745
精湛	-11.0745
二弟	-11.0745
亢龙有悔	-11.0746
森森	-11.0746
救得	-11.0746
诚恳	-11.0746
劣	-11.0746
灵机一动	-11.0747
金盆洗手	-11.0747
总而言之	-11.0747
你说我	-11.0747
抵赖	-11.0747
冲到	-11.0748
的面子	-11.0748
干光豪	-11.0748
蒸	-11.0748
龚光杰	-11.0748
还施彼身	-11.0748
跟随在后	-11.0748
侯	-11.0748
田某	-11.0748
中年汉子	-11.0749
背诵	-11.0749
岂敢	-11.0749
刘三爷	-11.0749
渊	-11.0749
辈份	-11.0749
灯笼	-11.0749
光彩	-11.075
令狐冲和	-11.075
玩耍	-11.075
吸一口气	-11.075
无限	-11.075
师伯祖	-11.075
蒙古大军	-11.0751
快捷	-11.0751
横卧	-11.0751
害羞	-11.0751
流星	-11.0751
摸索	-11.0751
血迹	-11.0752
四大恶人	-11.0753
段夫人	-11.0753
连续	-11.0754
相候	-11.0755
男的	-11.0755
不准	-11.0756
惊醒	-11.0757
服输	-11.0757
只听她	-11.0758
默默	-11.0759
身负	-11.076
武功再高	-11.0761
痛苦	-11.0761
便见	-11.0763
又听	-11.0764
变了	-11.0765
众百姓	-11.0766
利剑	-11.0769
古人	-11.077
满口	-11.0771
又行	-11.0772
满地	-11.0773
十四	-11.0773
莫名其妙	-11.0773
天罡北斗阵	-11.0774
酒量	-11.0774
攻城	-11.0776
敌意	-11.0777
钢针	-11.0779
来寻	-11.078
你不肯	-11.0782
深情	-11.0782
将士	-11.0783
但我	-11.0783
袋中	-11.0785
向小龙女	-11.0788
三十年	-11.0788
洞外	-11.0791
成不成	-11.0792
洞里	-11.0792
散开	-11.0793
柔情	-11.0795
忽而	-11.0796
对望了一眼	-11.0798
无益	-11.0799
的威名	-11.08
卷起	-11.0802
眼光中	-11.0802
所授的	-11.0803
够了	-11.0804
马背	-11.0807
车中	-11.0807
围住	-11.0808
放箭	-11.0809
信了	-11.081
深意	-11.0815
四面	-11.0815
救治	-11.0817
三条	-11.0818
七八个	-11.0819
哭声	-11.082
谭	-11.0823
还有甚么	-11.0823
足底	-11.0824
还怕	-11.0825
恨我	-11.0826
分头	-11.0826
写字	-11.0827
屁	-11.0827
追出	-11.0828
平常	-11.083
不平	-11.083
加劲	-11.083
武林盟主	-11.0834
光闪闪	-11.0841
想像	-11.0843
琴音	-11.0845
十余招	-11.0845
压在	-11.0846
稍一	-11.0848
是契丹人	-11.085
甚么东西	-11.0851
疾风	-11.0852
地位	-11.0855
右手食指	-11.0856
帮会	-11.0857
小路	-11.0861
大出	-11.0863
本来是	-11.0866
额	-11.0867
里的	-11.0868
娃娃	-11.0868
左冷禅道	-11.0869
花树	-11.0871
莫要	-11.0874
急于	-11.0874
的相貌	-11.0874
历代	-11.0881
这一场	-11.0883
退下	-11.0885
撞得	-11.0886
人才	-11.0887
我曾	-11.0888
上有	-11.0888
会意	-11.0889
咕	-11.0889
完颜康道	-11.0889
之能	-11.0891
没听见	-11.0891
带到	-11.0892
也知	-11.0894
是不能	-11.0895
颇感	-11.0896
刻着	-11.0897
得起	-11.0904
亦不	-11.0906
订	-11.0912
顾不得	-11.0917
要知	-11.0917
学艺	-11.0917
你这么	-11.0918
这四	-11.0918
如山	-11.0919
难逃	-11.0923
不露	-11.0932
一本	-11.094
扶住	-11.094
壶	-11.0942
轿	-11.0946
只吓得	-11.0953
三成	-11.0953
身亡	-11.0956
市	-11.0956
庄主	-11.0957
的都是	-11.096
低微	-11.096
余下的	-11.0967
垂下	-11.0969
一角	-11.097
奋	-11.0971
将之	-11.0972
兰	-11.0973
很多	-11.0973
感激不尽	-11.0977
眉毛	-11.0977
评	-11.0979
骤	-11.0979
名门正派	-11.0979
一流高手	-11.098
朴	-11.098
寂静无声	-11.098
黑黝黝的	-11.098
模糊	-11.098
兮	-11.098
岳老三	-11.098
话来	-11.098
无法可施	-11.098
越说越	-11.098
何足道哉	-11.0981
剧烈	-11.0981
黑衣女郎	-11.0981
情花之毒	-11.0981
活在世上	-11.0981
鳄鱼	-11.0981
隔了半晌	-11.0981
滑溜	-11.0982
邪魔外道	-11.0982
上乘内功	-11.0982
万人队	-11.0982
忽尔	-11.0982
玉蜂针	-11.0982
恼恨	-11.0982
临死时	-11.0983
相询	-11.0983
眉目	-11.0983
武烈	-11.0985
玩玩	-11.0985
瑶琴	-11.0985
纵是	-11.0986
耳目	-11.0988
举步	-11.099
灵药	-11.0991
沿着	-11.0991
将长剑	-11.0993
来瞧瞧	-11.0994
脉门	-11.0996
摇手	-11.0996
心存	-11.0997
满面	-11.0998
伤痛	-11.0998
那也不用	-11.0998
跌入	-11.0999
市镇	-11.0999
七位	-11.1
旧事	-11.1
必然	-11.1001
喝得	-11.1002
了一半	-11.1002
别怕	-11.1002
段家	-11.1004
老婆子	-11.1004
报复	-11.1006
奔行	-11.1008
寻仇	-11.1008
御营	-11.1009
作势	-11.101
这一刀	-11.1011
求情	-11.1012
及时	-11.1012
幽幽的	-11.1013
情人	-11.1014
冲杀	-11.1015
庄严	-11.1016
又怎会	-11.1017
抬着	-11.102
过节	-11.1022
大夫	-11.1022
另行	-11.1024
连夜	-11.1024
逼问	-11.1025
分明	-11.1027
必当	-11.103
处置	-11.1034
仁义	-11.1035
屋子	-11.1037
一种	-11.1037
缓缓说道	-11.1042
容让	-11.1043
不下去	-11.1044
斥道	-11.1044
安危	-11.1049
走来	-11.1049
不欲	-11.1051
等四人	-11.1053
一大片	-11.1055
怎么说	-11.1057
我兄弟	-11.1058
牛羊	-11.106
怪我	-11.1063
华山派掌门	-11.1064
剪刀	-11.1065
谁来	-11.1065
那柄	-11.1071
口唇	-11.1072
船中	-11.1072
老妇	-11.1073
一心	-11.1074
刀柄	-11.1074
无声	-11.1077
换上	-11.1077
一大半	-11.1078
敷上	-11.1081
又听得	-11.1082
我怎	-11.1082
斯	-11.1084
两掌	-11.1085
再也不能	-11.1086
之苦	-11.1089
同道	-11.1092
即使	-11.1092
你就是	-11.1094
向天	-11.1096
淡淡的	-11.1096
厮	-11.1097
双膝一	-11.11
这口	-11.1101
医道	-11.1101
一份	-11.1101
蜜	-11.1101
好色	-11.1102
黄河	-11.1103
左眼	-11.1103
对不住	-11.1105
身不由主的	-11.1107
那小子	-11.1107
真心	-11.1109
洛阳	-11.111
纵身而	-11.1112
无疑	-11.1116
呼声	-11.1117
第二人	-11.1119
嗅	-11.1119
了开来	-11.1124
宰	-11.1126
最为	-11.1126
上崖	-11.1127
一挺	-11.113
胜负	-11.1132
我不要	-11.1132
何事	-11.1134
赶上	-11.1138
口鼻	-11.1139
砍去	-11.114
戒刀	-11.1142
好生奇怪	-11.1143
有一人	-11.1144
不必再	-11.1146
挽	-11.1147
那二人	-11.1148
缘故	-11.115
发现	-11.1151
挡住了	-11.1153
越好	-11.1159
但此时	-11.116
好奇	-11.116
重任	-11.1163
这一脚	-11.1163
斩断	-11.1165
马蹄	-11.1167
来路	-11.1167
瞎了	-11.1168
作主	-11.1171
燕	-11.1172
了断	-11.1174
女郎	-11.1175
枕	-11.1178
藤	-11.1183
蓄	-11.1183
年纪虽	-11.1192
进门	-11.1193
痕	-11.1194
炉	-11.1194
斟	-11.1195
三派	-11.1196
的毒手	-11.1196
了一步	-11.1199
地上	-11.1201
却是个	-11.1201
你还不	-11.1202
兄弟俩	-11.1207
梳	-11.1213
亲生	-11.1214
戟	-11.1214
不闻	-11.1215
庸	-11.1216
猜测	-11.1217
妒	-11.1217
卑	-11.1217
符	-11.1217
亲眼目睹	-11.1217
相称	-11.1217
罗唆	-11.1217
皇太叔	-11.1217
脓包	-11.1218
韵	-11.1218
胡思乱想	-11.1218
一个筋斗	-11.1218
讥刺	-11.1218
低下了头	-11.1218
分毫	-11.1218
预备	-11.1218
徒孙	-11.1219
罪孽	-11.1219
令狐少侠	-11.1219
贞	-11.1219
卜	-11.1219
玉音子	-11.1219
果然名不虚传	-11.1219
咒骂	-11.1219
达摩堂	-11.1219
灰尘	-11.122
灯光	-11.1221
清凉	-11.1222
宁定	-11.1222
腋下	-11.1223
响声	-11.1223
蒙古武士	-11.1223
摔倒在地	-11.1224
假扮	-11.1224
令狐兄弟	-11.1226
肚腹	-11.1226
遍地	-11.1226
放在桌上	-11.1226
人生	-11.1227
遵命	-11.123
猛恶	-11.123
明教教主	-11.123
弯刀	-11.1231
在少林寺中	-11.1232
镇定	-11.1233
虚招	-11.1235
酒饭	-11.1235
第二招	-11.1236
二武	-11.1237
昆仑山	-11.1237
竟如此	-11.1237
呐喊	-11.1238
掀开	-11.1238
农	-11.1238
毒发	-11.1239
偷盗	-11.1239
近来	-11.1239
跳动	-11.124
尹志平道	-11.124
礼数	-11.1242
空见	-11.1242
大叔	-11.1243
有命	-11.1243
武林同道	-11.1244
贤侄	-11.1245
妖邪	-11.1245
这中间的	-11.1245
都是一惊	-11.1245
邀请	-11.1246
踪迹	-11.1247
他手掌	-11.1248
脸有	-11.1249
夺去	-11.1249
笔直	-11.1249
血色	-11.125
竖起	-11.1251
两尺	-11.1253
放开了	-11.1253
栽	-11.1254
要到	-11.1254
去瞧	-11.1254
我不能	-11.1256
的衣袖	-11.1257
进境	-11.1259
这时却	-11.1259
翻转	-11.1259
借着	-11.126
化成	-11.126
不济	-11.1264
打发	-11.1265
个不停	-11.1265
喀的一声	-11.1265
她身上	-11.1266
堵	-11.1267
不吃	-11.1267
坐定	-11.1267
竟被	-11.1269
脸颊上	-11.1269
复仇	-11.127
一问	-11.127
不脱	-11.1271
泄露	-11.1272
连说	-11.1273
剑气	-11.1273
喜爱	-11.1275
看守	-11.1278
后殿	-11.1281
几个月	-11.1282
黄二人	-11.1284
关连	-11.1285
山崖	-11.1287
又有人	-11.1288
一支	-11.1288
撞去	-11.1292
欧阳克道	-11.1293
下来的	-11.1294
求我	-11.1297
只要他	-11.1301
役	-11.1302
不许我	-11.1302
!’”	-11.1303
又被	-11.1306
的局面	-11.131
无量山	-11.131
忽然想起	-11.1311
怕我	-11.1314
了结	-11.132
她手	-11.1321
找他	-11.1326
不肖	-11.1327
命我	-11.1332
窗口	-11.1334
便当	-11.1337
睡在	-11.134
大辽	-11.1345
好大	-11.1345
走啦	-11.1346
一伸	-11.1348
数万	-11.135
我怕	-11.135
蛋	-11.1354
五名	-11.1356
小的	-11.1358
也没什么	-11.136
天生	-11.1361
重剑	-11.1362
大碗	-11.1363
负了	-11.1366
好吧	-11.1368
越过	-11.1368
的坐骑	-11.1369
用的	-11.137
的敌手	-11.137
来找	-11.1373
一项	-11.1374
图中	-11.1375
一战	-11.138
嗤嗤声响	-11.1384
郭靖大喜	-11.1387
贫	-11.1388
流出	-11.1389
我既	-11.1389
总不能	-11.1389
走过去	-11.1391
门边	-11.1392
有不少	-11.1393
扣住	-11.1394
珍	-11.14
又都	-11.1403
由此	-11.1406
一缩	-11.1407
现下我	-11.1407
插手	-11.1409
要她	-11.1409
素闻	-11.1411
周伯通笑道	-11.1413
女童	-11.1414
不清	-11.1414
便以	-11.1414
世子	-11.1417
教她	-11.1417
得很了	-11.1419
携了	-11.1421
我把	-11.1425
摔入	-11.1426
我若不	-11.1426
仍不	-11.1427
入口	-11.1428
五位	-11.1432
后着	-11.1432
抢夺	-11.1434
是真是假	-11.1435
便也	-11.1436
在门外	-11.1442
便怎样	-11.1443
捡	-11.1444
户	-11.1446
这里有	-11.1446
上门	-11.1446
也不知是	-11.1446
你跟	-11.1447
的武学	-11.1447
柴草	-11.1447
律	-11.1448
手背上	-11.145
锐	-11.145
遵	-11.145
又是一	-11.1451
酒水	-11.1451
惠	-11.1451
油灯	-11.1453
一只手	-11.1453
更为	-11.1456
渴	-11.1457
艳	-11.1458
训	-11.1459
职	-11.1459
温言	-11.1459
惊骇	-11.1459
苗	-11.1459
漫	-11.1461
仰慕	-11.1461
责罚	-11.1461
平平无奇	-11.1461
走火入魔	-11.1461
恐惧	-11.1461
骆驼	-11.1462
朦胧	-11.1462
威严	-11.1462
五散人	-11.1462
玄冥神掌	-11.1462
瞬息之间	-11.1462
锦袍	-11.1462
熟悉	-11.1462
死于非命	-11.1462
薛公远	-11.1462
放在眼里	-11.1463
那自是	-11.1463
烟雨楼	-11.1463
御敌	-11.1463
岂有此理	-11.1464
馒头	-11.1464
尘土	-11.1464
毫不理会	-11.1464
倒霉	-11.1464
赞叹	-11.1465
也还	-11.1465
乌云	-11.1465
嘴角边	-11.1465
座船	-11.1467
跳了起来	-11.1467
尊主	-11.1468
恍然	-11.1469
别再	-11.1469
闲事	-11.1469
形势	-11.147
推辞	-11.147
父王	-11.1471
几百	-11.1474
仗剑	-11.1475
服色	-11.1476
死伤	-11.1476
用不着	-11.1476
医生	-11.1477
前辈高人	-11.1478
内力深厚	-11.1478
只震得	-11.1479
烛光	-11.148
烧得	-11.1481
周全	-11.1481
提醒	-11.1482
锋利	-11.1484
众女	-11.1485
晚生	-11.1488
要救	-11.1488
回剑	-11.1494
一筹	-11.1494
杨过与小龙女	-11.1498
请坐	-11.1499
最爱	-11.1499
余地	-11.1499
驱除	-11.15
行去	-11.1502
横行	-11.1505
点燃了	-11.1507
所及	-11.151
其实是	-11.1511
令旗	-11.1511
救她	-11.1512
下崖	-11.1516
一站	-11.1516
那张	-11.1517
足踝	-11.1517
手来	-11.1518
出头	-11.1519
急步	-11.1519
放他	-11.1521
丛中	-11.1521
传下	-11.1526
她知	-11.1526
捉拿	-11.1526
深处	-11.1528
围住了	-11.153
点中了	-11.153
饿了	-11.1531
叫甚么	-11.1532
偷看	-11.1539
走路	-11.1539
急转	-11.154
之声大作	-11.1541
这位前辈	-11.1544
鼻中	-11.1546
绝招	-11.1551
给你们	-11.1552
骂得	-11.1552
微感	-11.1555
和张无忌	-11.1559
抓了	-11.1561
在那里	-11.1561
解穴	-11.1561
十多年	-11.1563
两兄弟	-11.1569
中都	-11.157
两日	-11.1572
这奸贼	-11.1572
那天	-11.1573
助你	-11.1574
想起自己	-11.1576
瞪眼	-11.1576
大将	-11.1576
哪里有	-11.1578
问她	-11.1578
帐中	-11.1579
不小心	-11.1582
不透	-11.1584
这把	-11.1584
对杨过	-11.1588
活人	-11.159
直是	-11.1592
四大	-11.1592
待她	-11.1593
铁青	-11.1593
不识得	-11.1593
还说	-11.1593
及不上	-11.1595
烈火	-11.1595
一个小小	-11.1596
重围	-11.1598
熄	-11.1598
缠住	-11.1599
道袍	-11.16
别来	-11.1601
教主之位	-11.1605
火药	-11.1607
我们是	-11.1607
言辞	-11.161
我只道	-11.161
无敌	-11.1613
坐倒	-11.162
渗出	-11.1623
多活	-11.1624
那你	-11.1626
一个女子声音	-11.1626
喝彩	-11.1633
了多少时候	-11.1638
不打	-11.164
治好了	-11.1641
当日在	-11.1645
阿紫笑道	-11.1645
直奔	-11.1648
他知道	-11.1648
圆圈	-11.165
击到	-11.1652
两剑	-11.1653
我做	-11.1654
小孔	-11.1655
城下	-11.1656
拔刀	-11.1656
呈	-11.1658
不理会	-11.1658
言语中	-11.166
万安寺	-11.1661
小畜生	-11.1661
往日	-11.1666
穆念慈道	-11.1668
见二人	-11.167
四剑	-11.167
无人能	-11.1676
一概	-11.1676
咬牙	-11.1677
幼小	-11.1678
奔逃	-11.1679
未免太	-11.1681
传入	-11.1683
说些	-11.1683
刺了	-11.1683
嫁给	-11.1685
听到她	-11.1686
电	-11.1686
剑身	-11.1686
段誉见	-11.1687
榻	-11.1687
搔	-11.1689
不认得	-11.1689
不暇	-11.169
的主意	-11.1693
段誉心想	-11.1693
也不见得	-11.1693
进房	-11.1695
球	-11.1695
听听	-11.1695
去捉	-11.1696
长草	-11.1698
蜂	-11.17
至此	-11.1702
屠	-11.1703
涉	-11.1703
使了	-11.1703
右侧	-11.1703
耻	-11.1704
出得	-11.1705
这几句话说得	-11.1705
瞧这	-11.1705
说话声音	-11.1705
也决不能	-11.1705
婿	-11.1707
盐	-11.1708
梯	-11.1708
嫩	-11.1708
南京	-11.1708
灾	-11.1709
区区	-11.1709
这两位	-11.1709
思过崖	-11.171
唐文亮	-11.171
宣	-11.171
睹	-11.171
织	-11.171
笑问	-11.1711
况	-11.1711
喻	-11.1711
啼	-11.1711
啄	-11.1711
出神入化	-11.1711
无恙	-11.1711
见死不救	-11.1711
驻	-11.1712
光明	-11.1712
束手无策	-11.1712
敏妹	-11.1712
兴高采烈	-11.1712
岳老二	-11.1712
神雕大侠	-11.1712
无伦	-11.1712
滑稽	-11.1712
仇松年	-11.1712
澄	-11.1712
护卫	-11.1712
无恶不作	-11.1712
折辱	-11.1712
一顿饭时分	-11.1713
加倍	-11.1713
冥	-11.1713
菊剑	-11.1713
不计其数	-11.1713
宋大侠	-11.1713
禅师	-11.1713
草棚	-11.1713
利刃	-11.1713
凑巧	-11.1714
僧袍	-11.1714
半夜里	-11.1714
逐步	-11.1714
无不骇然	-11.1715
爱妻	-11.1715
挥舞	-11.1715
剧斗	-11.1716
久闻	-11.1716
女尼	-11.1718
众位朋友	-11.1718
少林高僧	-11.1718
相求	-11.1719
方丈师兄	-11.172
五姑	-11.172
怒目	-11.172
应变	-11.1721
气闷	-11.1721
铁罩	-11.1721
道旁	-11.1722
败在	-11.1723
水声	-11.1723
妖人	-11.1728
甚感	-11.1728
正邪	-11.173
奴才	-11.173
挣扎着	-11.173
方才	-11.1731
精深	-11.1732
发了	-11.1733
贼秃	-11.1734
逃脱	-11.1734
鬼鬼祟祟的	-11.1735
杀伤	-11.1736
的为是	-11.1736
无甚	-11.1737
梁上	-11.1738
内脏	-11.1739
最近	-11.1739
断骨	-11.174
月光下	-11.1742
又觉	-11.1742
无暇	-11.1745
消解	-11.1746
怨仇	-11.1746
决不可	-11.1747
绝学	-11.1748
一定要	-11.175
要在	-11.1753
音讯	-11.1754
史帮主	-11.1759
这样罢	-11.176
办到	-11.1762
奇功	-11.1763
冷冷的	-11.1764
第九	-11.1766
大口	-11.1768
居然还	-11.1768
己方	-11.1769
家的	-11.177
桃花岛上	-11.1772
这一抓	-11.1772
驴子	-11.1773
能耐	-11.1775
小妹子	-11.1776
斗了	-11.1776
更甚	-11.1776
半空	-11.1777
铮铮	-11.1778
身死	-11.1778
柳树	-11.1779
并肩而行	-11.1781
死不了	-11.1781
自创	-11.1784
有礼	-11.1785
大变	-11.1786
只怕他	-11.1787
惨叫	-11.1791
说得出	-11.1794
火头	-11.1795
一尺	-11.1797
夹攻	-11.18
’?	-11.18
半个	-11.1801
这样一位	-11.1801
山洞中	-11.1801
老了	-11.1802
功德	-11.1803
便都	-11.1807
松了	-11.1808
弹出	-11.1809
拿住了	-11.1811
二道	-11.1814
几根	-11.1815
为主	-11.1817
死命	-11.1818
发见	-11.1818
堕入	-11.1819
陆冠英道	-11.182
要打	-11.182
再将	-11.182
▁得	-11.1821
隐身	-11.1823
儿女	-11.1823
道爷	-11.1825
全都	-11.1825
数下	-11.1826
周围	-11.1827
目光中	-11.1827
呆呆的	-11.1828
招手	-11.1828
之强	-11.1829
朵	-11.1837
高处	-11.1838
名头	-11.1839
也未必能	-11.1839
苦于	-11.1843
这四个	-11.1843
做和尚	-11.1849
来做	-11.1849
竹林	-11.185
此去	-11.1854
抹去	-11.1861
人命	-11.1863
有什么好	-11.1864
当今	-11.1865
家父	-11.1868
只叫	-11.1872
或能	-11.1874
之位	-11.1879
两天	-11.1881
打人	-11.1882
丘处机等	-11.1883
不做	-11.1884
有性命之忧	-11.1884
凶猛	-11.1888
武功虽	-11.189
神色间	-11.1893
了进来	-11.1895
的绝招	-11.1897
侄	-11.1899
去请	-11.19
皱眉	-11.19
去杀	-11.1901
骷髅	-11.1904
作别	-11.1905
凭你	-11.1913
阳光	-11.1917
按在	-11.1919
去买	-11.1923
神气	-11.1926
清清楚楚	-11.1926
一瞥	-11.1927
出现了	-11.1928
便又	-11.193
来跟	-11.193
司马	-11.193
挑了	-11.1932
胁	-11.1933
不答允	-11.1934
议论	-11.1935
上船	-11.1935
十指	-11.1938
好歹	-11.1938
从来	-11.1941
你便是	-11.1942
诺	-11.1943
瞧见了	-11.1945
捉到	-11.1945
希罕	-11.1947
瓜	-11.1951
贵教	-11.1952
誉	-11.1954
姬	-11.1955
了吧	-11.1955
妃	-11.1958
场中	-11.196
朗	-11.196
绸	-11.1961
你二人	-11.1962
耶律	-11.1963
儒	-11.1964
淋漓	-11.1964
鬓	-11.1965
邻	-11.1966
百忙中	-11.1967
小沙弥	-11.1967
酣	-11.1967
作恶多端	-11.1967
大呼小叫	-11.1967
荆	-11.1967
郁	-11.1967
成不忧	-11.1967
内心深处	-11.1968
奔上	-11.1968
从头至尾	-11.1968
自然知道	-11.1968
洪基	-11.1968
霹雳	-11.1968
闹着玩	-11.1968
诡计多端	-11.1968
弥	-11.1968
报仇雪恨	-11.1968
兴奋	-11.1968
五根手指	-11.1968
堪堪	-11.1968
计策	-11.1969
椎	-11.1969
抗御	-11.1969
完颜洪熙	-11.1969
九指神丐	-11.1969
枣核钉	-11.1969
坐起身来	-11.1969
一品堂	-11.1969
心头一震	-11.1969
尾巴	-11.1969
丫鬟	-11.1969
含泪	-11.1969
在石上	-11.197
恶狠狠的	-11.197
惊恐	-11.197
英雄大宴	-11.197
讨厌	-11.197
在其内	-11.197
青衫	-11.1971
冲哥	-11.1971
大乱	-11.1971
又有谁	-11.1971
少镖头	-11.1971
详加	-11.1972
士卒	-11.1972
性格	-11.1972
灵州	-11.1972
神技	-11.1973
禁不住	-11.1973
胯下	-11.1974
一时也	-11.1974
相触	-11.1974
足印	-11.1975
宋军	-11.1977
相烦	-11.1977
狼牙棒	-11.1983
专心	-11.1986
嗡嗡	-11.1988
房外	-11.1989
每年	-11.1989
攻到	-11.1989
伤感	-11.1992
坐船	-11.1994
胜得过	-11.1994
意思说	-11.1997
囚	-11.1998
已不过	-11.1998
奔近	-11.2
拜倒	-11.2002
火折	-11.2004
神奇	-11.2004
带领	-11.2008
芳	-11.2008
言明	-11.201
甚么话	-11.2011
是何用意	-11.2012
打过	-11.2013
万一	-11.2014
割了	-11.2015
竟无	-11.2016
一振	-11.2017
急驰	-11.2017
少林弟子	-11.2018
几口	-11.2021
闹得	-11.2022
脚力	-11.2023
彭连虎等	-11.2023
道兄	-11.2024
武功之高	-11.2025
听他说得	-11.2026
两眼	-11.2027
之礼	-11.2027
两穴	-11.2033
但知	-11.2038
城墙	-11.2041
有本事	-11.2045
所传的	-11.2045
骂你	-11.2046
隐隐有	-11.2046
你能	-11.2047
几句话	-11.2048
毫	-11.2051
有缘	-11.2053
否	-11.2054
弄得	-11.2058
既然如此	-11.206
泰山派的	-11.2063
铁钉	-11.2064
去打	-11.2065
伸出左手	-11.2066
而言	-11.2066
搁	-11.2067
依我	-11.2067
众人见	-11.2067
惯	-11.2068
居中	-11.2069
送你	-11.2069
闪过	-11.2072
翻过	-11.2073
矮子	-11.2073
饭店	-11.2075
总之是	-11.2075
树下	-11.2075
查明	-11.2079
之敌	-11.2079
劝他	-11.208
前往	-11.2082
丁勉	-11.2082
英雄大会	-11.2084
这个自然	-11.2085
半夜	-11.2086
到此	-11.2087
岂肯	-11.2087
此刀	-11.2088
跟你们	-11.2088
心中一	-11.2088
淫贼	-11.2091
山边	-11.2093
些什么	-11.2095
他这一	-11.2096
十天	-11.2101
喊声	-11.2105
一经	-11.2106
磕了	-11.2109
了半日	-11.2109
立下	-11.211
送入	-11.2111
传我	-11.2118
得厉害	-11.212
的男子	-11.212
在身上	-11.212
竟在	-11.2122
把你	-11.2122
天天	-11.2124
弹琴	-11.2124
莫大	-11.2127
却何以	-11.2128
心生	-11.213
少有	-11.2131
大盛	-11.2131
便得	-11.2133
疾驰	-11.2133
二师父	-11.2136
站住	-11.2136
岔	-11.2136
骗得	-11.2139
同来	-11.2139
闻到一阵	-11.2141
的英雄好汉	-11.2143
低沉	-11.2146
正派	-11.2147
狠狠的	-11.2147
一抬	-11.2148
毒箭	-11.2149
难为	-11.215
说一句话	-11.2152
的容貌	-11.2156
他三人	-11.2157
一盏茶时分	-11.216
像是	-11.2162
一放	-11.2162
何况他	-11.2163
他生平	-11.2163
抑	-11.2165
击打	-11.217
的威力	-11.2171
一过	-11.2177
金毛狮王谢逊	-11.2177
只听那	-11.2177
柔声	-11.2178
我还是	-11.2181
又似	-11.2188
辰	-11.2192
▁然	-11.2193
恰	-11.2194
你家	-11.2196
鞭子	-11.2199
日光	-11.2199
来个	-11.2202
老婆婆	-11.2203
她手腕	-11.2206
非常	-11.2206
两行	-11.2207
人形	-11.2207
为自己	-11.2208
即令	-11.2208
横剑	-11.221
▁来	-11.221
不治	-11.2211
发颤	-11.2213
足尖	-11.2215
偿	-11.2216
绘	-11.2216
我姓	-11.2217
省悟	-11.2217
纵有	-11.2217
傍晚	-11.2218
寨	-11.2222
机缘	-11.2223
咱们是	-11.2223
捷	-11.2224
退了两步	-11.2225
记挂	-11.2226
叮	-11.2226
启禀	-11.2227
黄蓉心想	-11.2227
甚深	-11.2227
炭	-11.2228
呼啸	-11.2229
威震	-11.2229
九阴白骨爪	-11.223
随意	-11.223
愚	-11.223
维	-11.223
爆	-11.223
一艘	-11.223
昏昏沉沉	-11.223
膀	-11.223
饥	-11.2231
似笑非笑	-11.2231
一窍不通	-11.2231
讥嘲	-11.2231
笃	-11.2231
瑞婆婆	-11.2231
霞	-11.2231
豪迈	-11.2231
十之八九	-11.2231
吴劲草	-11.2231
裙	-11.2231
烫	-11.2231
宏	-11.2231
说也奇怪	-11.2231
从今而后	-11.2232
王难姑	-11.2232
般若掌	-11.2232
化去	-11.2232
将令狐冲	-11.2232
有恃无恐	-11.2232
俟机	-11.2232
谕	-11.2232
五派合并	-11.2232
是何等样人	-11.2232
昆仑三圣	-11.2233
牲口	-11.2233
比武招亲	-11.2233
恢复	-11.2233
承认	-11.2233
班	-11.2233
狂妄	-11.2233
呼哨	-11.2233
史镖头	-11.2233
包扎	-11.2233
杆棒	-11.2233
跪拜	-11.2233
临死之时	-11.2233
挂怀	-11.2233
断为两截	-11.2233
筋骨	-11.2234
精研	-11.2234
仗义	-11.2234
嘻嘻一笑	-11.2234
恩怨	-11.2235
皇位	-11.2236
任脉	-11.2236
反悔	-11.2236
腿骨	-11.2237
但求	-11.2237
宝物	-11.2237
黑夜之中	-11.2238
依照	-11.2238
字辈	-11.2239
传言	-11.2242
缠斗	-11.2243
撒手	-11.2243
意图	-11.2244
那便如何是好	-11.2244
包兄	-11.2244
后患	-11.2244
断臂	-11.2244
信得过	-11.2245
寻觅	-11.2246
牵连	-11.2246
眉心	-11.225
之态	-11.225
各持	-11.2251
全然不同	-11.2251
我又不是	-11.2251
并不是	-11.2253
举剑	-11.2254
转出	-11.2254
冲虚道人	-11.2255
老英雄	-11.2255
但转念一想	-11.2257
晕倒	-11.2257
哭叫	-11.2258
这一节	-11.2259
武功天下第一	-11.2261
心底	-11.2263
全身一震	-11.2264
一成	-11.2264
约定	-11.2265
看清	-11.2265
慢慢的	-11.2265
避让	-11.2266
也只好	-11.2267
天性	-11.2267
十几	-11.2268
有令	-11.2271
贺	-11.2272
情不自禁的	-11.2274
华山论剑	-11.2274
下落	-11.2276
取下	-11.2276
午	-11.2277
由我	-11.2278
忙伸手	-11.2279
忽听得远处	-11.228
隔了良久	-11.2283
追寻	-11.2283
只是她	-11.2286
高塔	-11.2286
倾心	-11.2287
光明顶上	-11.2287
批	-11.2288
搓	-11.2288
踢去	-11.2289
一摆	-11.2289
分离	-11.229
板壁	-11.2291
伤药	-11.2292
帮着	-11.2297
几人	-11.2297
使上了	-11.2299
奇快	-11.23
自己却	-11.2302
点中	-11.2303
座下	-11.2304
跟你说了	-11.2304
斗不过	-11.2306
女侠	-11.2306
那小	-11.2309
脸一沉	-11.231
送来	-11.2311
你好好	-11.2314
会不会	-11.2318
奉了	-11.2319
干么不	-11.2321
道谢	-11.2321
无知	-11.2322
他脸上	-11.2322
马鞍	-11.2327
回山	-11.2328
众高手	-11.2332
的一声大叫	-11.2332
拍去	-11.2333
深陷	-11.2333
来见我	-11.2338
上写着	-11.2339
赶回	-11.234
就怕	-11.2341
他若	-11.2341
如同	-11.2342
寒冷	-11.2343
说说	-11.2344
写得	-11.2347
蹄	-11.2348
一腿	-11.2354
缝中	-11.2354
从头	-11.2355
教主的	-11.2355
无相	-11.2356
武学中	-11.2356
欧阳克笑道	-11.2356
会神	-11.2361
谁也不知	-11.2365
手指上	-11.2366
心想自己	-11.2367
见他脸色	-11.2367
耀	-11.2367
四个字	-11.2369
令她	-11.2369
去和	-11.237
一语	-11.237
亲人	-11.2372
玩笑	-11.2375
实则	-11.2377
大进	-11.2377
的行径	-11.2379
扑向	-11.2384
架在	-11.2386
吐蕃国	-11.2386
半点也不	-11.2387
我对你	-11.2388
怕她	-11.239
中途	-11.239
这般说	-11.2397
学着	-11.2405
你在这里	-11.2407
纵声	-11.2409
两人同时	-11.2409
其他	-11.2413
笑了起来	-11.2415
武官	-11.2418
你武功	-11.2423
打落	-11.2425
摸出	-11.2426
等你	-11.2427
小朋友	-11.2427
擒拿手	-11.2428
▁过	-11.243
进屋	-11.243
于人	-11.2433
那道士	-11.2433
屋内	-11.2434
风吹	-11.2438
过后	-11.2438
约会	-11.2438
将近	-11.2439
跳下	-11.2445
已把	-11.2448
我是个	-11.245
之学	-11.2451
便问	-11.2452
老丐	-11.2456
撞击	-11.2458
将他身子	-11.246
一瞬之间	-11.2462
尽了	-11.2464
已抓住了	-11.2464
一加	-11.2467
到了这里	-11.2468
我有	-11.2469
曾说	-11.247
殊无	-11.247
邦	-11.2471
背心上	-11.2474
藏着	-11.2475
佛像	-11.2477
暗骂	-11.248
也没有了	-11.2481
有一股	-11.2482
不少人	-11.2486
帮我	-11.2487
可不知	-11.2488
治不好	-11.2489
驼	-11.249
便行	-11.2491
循	-11.2491
狮	-11.2494
支撑	-11.2495
匠	-11.2495
迅	-11.2495
不知是否	-11.2497
郑	-11.2497
耶律晋	-11.2498
金刚	-11.2498
龟	-11.2499
炼	-11.25
缠绵	-11.25
巨鲸帮	-11.2501
水蛭	-11.2501
宫中	-11.2501
寡不敌众	-11.2501
心花怒放	-11.2501
肮脏	-11.2501
添	-11.2501
沮丧	-11.2501
症	-11.2501
瓷	-11.2501
听在耳里	-11.2501
壳	-11.2501
疆	-11.2501
竞	-11.2501
易三娘	-11.2501
陶	-11.2501
他怕	-11.2501
抚琴	-11.2501
易如反掌	-11.2502
暗暗称奇	-11.2502
孟	-11.2502
芙妹	-11.2502
黄伯流	-11.2502
哥儿俩	-11.2502
捏造	-11.2502
精神一振	-11.2502
吾	-11.2502
豆	-11.2502
▁声	-11.2503
晒	-11.2503
乔某	-11.2503
奸臣	-11.2503
沿途	-11.2503
圆业	-11.2503
失踪	-11.2503
零	-11.2503
用得着	-11.2503
医术	-11.2503
程大小姐	-11.2503
站直身子	-11.2503
诡秘	-11.2503
欺压	-11.2503
背叛	-11.2503
大恩大德	-11.2504
面幕	-11.2504
方生大师	-11.2504
珊儿	-11.2504
心下甚喜	-11.2504
只道是	-11.2505
形容	-11.2507
我表哥	-11.2507
兰剑	-11.2507
不想活了	-11.2507
江山	-11.2508
境内	-11.2508
木棒	-11.2508
曲折	-11.2509
纵身跃起	-11.2509
摔在地下	-11.251
学的	-11.2511
催马	-11.2511
射向	-11.2513
之会	-11.2514
顺口	-11.2515
的轻功	-11.2515
胆小	-11.2515
云云	-11.2516
也不再	-11.2517
的身份	-11.2517
摇动	-11.2517
天门	-11.2518
篇	-11.2519
敝教	-11.252
重要	-11.2521
瞧着他	-11.2521
信中	-11.2521
府上	-11.2521
敌兵	-11.2521
乘早	-11.2522
已被他	-11.2524
奉命	-11.2524
解脱	-11.2525
几欲	-11.2525
摔得	-11.2525
宽心	-11.2525
佛家	-11.2525
让人	-11.2527
这八个字	-11.2527
抚着	-11.2527
杨过和小龙女	-11.2528
失足	-11.2528
双刀	-11.2528
他一生	-11.2529
说得是	-11.253
心中一喜	-11.253
面貌	-11.253
一见之下	-11.2533
欺侮我	-11.2533
爽快	-11.2534
远离	-11.2534
四散	-11.2536
拳力	-11.2537
冲击	-11.2539
生病	-11.2539
掌门师叔	-11.2541
你啦	-11.2543
得十分	-11.2543
却来	-11.2546
致命	-11.2546
数百名	-11.2546
张兄弟	-11.2548
一咬牙	-11.2552
和人	-11.2553
摘	-11.2554
湖边	-11.2554
算得	-11.2561
糟了	-11.2561
急冲	-11.2561
西夏人	-11.2561
捉了	-11.2562
高出	-11.2564
他身旁	-11.2564
嘿嘿冷笑	-11.2565
不然	-11.2566
没瞧见	-11.2569
光闪动	-11.2569
说给我听	-11.2569
限	-11.2571
已抓住	-11.2571
骂他	-11.2571
他已	-11.2573
冲去	-11.2573
屋顶上	-11.2575
这剑	-11.2576
横蛮	-11.2579
隐伏	-11.2581
好似	-11.2582
好听	-11.2583
对了	-11.2584
来找我	-11.2584
也算	-11.2586
洞孔	-11.2589
混入	-11.259
话中	-11.259
这时已	-11.2593
全神贯注的	-11.2594
你为什么	-11.2595
再想	-11.2596
他这几句话	-11.2598
还击	-11.2598
如神	-11.2599
令狐冲见	-11.2601
;“	-11.2602
见他如此	-11.2603
大义	-11.2603
就不会	-11.2608
向师父	-11.2609
这几位	-11.2611
使开	-11.2612
引着	-11.2612
两家	-11.2613
石上	-11.2613
杨过叫道	-11.2614
但你	-11.2617
吼	-11.2618
官人	-11.2621
三岁	-11.2621
铮的一声	-11.2625
大厅中	-11.2628
海底	-11.263
就能	-11.2631
掌握	-11.2633
有没有	-11.2634
伙	-11.2636
流下	-11.2637
面临	-11.2639
首座	-11.264
大可	-11.2642
突然见到	-11.2644
一出	-11.2644
虽无	-11.2646
宛然	-11.2646
姓段	-11.2648
口子	-11.2649
的意思	-11.2651
几分	-11.2651
葬身	-11.2653
而为	-11.2653
你干甚么	-11.2653
梦中	-11.2654
女孩	-11.2656
涌出	-11.2658
那老	-11.2659
什么人	-11.266
削断	-11.2662
歉	-11.2662
说到此处	-11.2664
你们两个	-11.2665
遇到了	-11.2667
十名	-11.2668
想起一事	-11.2668
殷梨亭道	-11.267
船只	-11.2671
第八	-11.2677
身入	-11.2677
?’”	-11.2679
咱们先	-11.2679
海上	-11.2683
怎地如此	-11.2684
咬住	-11.2686
好些	-11.2688
十六年	-11.2688
之分	-11.2691
到哪里去了	-11.2692
葬	-11.2693
光一闪	-11.2694
擒住了	-11.2694
用劲	-11.2694
要向	-11.2697
什么都	-11.2697
往外	-11.2697
刚要	-11.2701
冲天	-11.2705
一阵阵	-11.2707
行得	-11.271
白布	-11.271
也觉	-11.2711
存着	-11.2714
好大的	-11.2718
庵	-11.2722
跃进	-11.2726
矮胖子	-11.2729
怎不	-11.2729
傻小子	-11.2731
於	-11.2731
回来了	-11.2733
我且	-11.2733
筹	-11.2734
船身	-11.2736
来时	-11.2742
他右手	-11.2742
酒中	-11.2746
挂着	-11.2748
孩童	-11.2748
桩	-11.2751
灵蛇岛	-11.2752
庭	-11.2753
七八人	-11.2754
铃声	-11.2756
珠宝	-11.2757
左颊	-11.2758
打出	-11.276
阵阵	-11.2762
泰	-11.2763
魔教中人	-11.2764
家数	-11.2765
说到后来	-11.2766
连日	-11.2767
指尖	-11.2767
后会有期	-11.2769
钦	-11.2769
韩小莹道	-11.2769
一说	-11.277
我一直	-11.2771
翁	-11.2772
卓	-11.2772
镖师	-11.2773
剃	-11.2773
伤重	-11.2775
上得	-11.2775
党	-11.2776
转为	-11.2776
中所载	-11.2777
勤	-11.2777
大惑不解	-11.2778
郭杨二人	-11.2778
乾坤大挪移心法	-11.2778
周怕通	-11.2778
懊悔	-11.2778
紫霞神功	-11.2779
叮嘱	-11.2779
乾	-11.2779
身败名裂	-11.2779
侍候	-11.2779
司徒千钟	-11.2779
略有	-11.278
走上几步	-11.278
汗血宝马	-11.278
择	-11.278
心狠手辣	-11.278
麻痒	-11.278
奸诈	-11.278
尽心竭力	-11.278
紧迫	-11.278
敬畏	-11.278
欣喜	-11.278
□	-11.278
裘千丈	-11.2781
擒获	-11.2781
寨主	-11.2781
恒山派掌门	-11.2781
风波	-11.2781
绑缚	-11.2781
悄立	-11.2781
计谋	-11.2781
义弟	-11.2781
秘诀	-11.2781
歉然	-11.2781
丁坚	-11.2781
鲍千灵	-11.2782
我恩师	-11.2782
袖手旁观	-11.2782
双轮	-11.2782
前后左右	-11.2782
泥土	-11.2782
宝典	-11.2783
其中的	-11.2783
手下的	-11.2783
走上前去	-11.2783
担架	-11.2783
呕血	-11.2783
老贼婆	-11.2784
一声长叹	-11.2784
谢罪	-11.2785
玄苦	-11.2785
最厉害的	-11.2785
威势	-11.2785
臭道士	-11.2785
雕兄	-11.2785
玄铁剑	-11.2785
的铁	-11.2786
飘忽	-11.2787
腕上	-11.2787
主公	-11.2788
皮肉	-11.2789
决定	-11.2789
厢房	-11.2789
明亮	-11.2789
罗汉堂	-11.2789
白眉	-11.279
依法	-11.279
一般见识	-11.279
一言未	-11.279
乘坐	-11.279
容色	-11.2792
雪地中	-11.2793
眉头	-11.2793
绣着	-11.2794
灭口	-11.2795
细微	-11.2795
这么大	-11.2795
牵动	-11.2796
任意	-11.2796
什么东西	-11.2797
我心里	-11.2797
整治	-11.2797
令狐冲和盈盈	-11.2798
白长老	-11.28
是武林中	-11.2801
做个	-11.2803
忽听得身后	-11.2803
一想	-11.2806
院子中	-11.2806
泣	-11.2809
忘记	-11.2809
炕上	-11.2812
鼻孔	-11.2813
这时见	-11.2815
攻上	-11.2817
崖顶	-11.2818
名声	-11.2822
发怒	-11.2823
托着	-11.2823
不是你	-11.2824
嗤嗤	-11.2825
派了	-11.2825
等情	-11.2827
小觑了	-11.2828
本意	-11.2828
回家去	-11.2829
叫了几声	-11.2831
厮杀	-11.2831
人家的	-11.2835
玉箫	-11.2835
。’“	-11.2836
在郭靖	-11.2838
用兵	-11.2838
跟了	-11.2839
驰来	-11.284
又无	-11.284
仰头	-11.2841
进厅	-11.2842
跨出	-11.2844
接待	-11.2844
多言	-11.2847
做甚么	-11.2849
不重	-11.2849
知己	-11.285
强行	-11.2852
两名弟子	-11.2852
那就是	-11.2853
帐外	-11.2854
却未	-11.2855
胡人	-11.2856
坡	-11.2857
那三人	-11.2858
你用	-11.2859
何用	-11.2859
抢过去	-11.286
严守	-11.286
硬生生的	-11.286
名医	-11.2861
管他	-11.2862
长声	-11.2863
大将军	-11.2867
说话之人	-11.2869
实有	-11.2871
爱子	-11.2873
松开	-11.2873
心急	-11.2874
自在	-11.2878
仙人	-11.2878
夷	-11.2883
第十	-11.2886
饿得	-11.2892
长了	-11.2894
剩	-11.2894
名僧人	-11.2896
焚	-11.29
气宗	-11.2904
额上	-11.2907
练气	-11.2911
往下	-11.2911
毙了	-11.2915
掏	-11.2916
对掌	-11.2917
哭了起来	-11.2918
干的	-11.2919
又想起	-11.2922
劈去	-11.2922
之身	-11.2923
这小丫头	-11.2928
决不容	-11.2929
砰的一	-11.2932
多日	-11.2932
怕你	-11.2934
问问	-11.2939
得甚是	-11.294
那一招	-11.2942
五岳剑派的	-11.2943
潇湘子等	-11.2943
起始	-11.2944
在脸上	-11.2945
怎么能	-11.2945
一抬头	-11.2946
削去	-11.2946
是天下	-11.2947
半个时辰	-11.2948
的对头	-11.2948
见到我	-11.2949
就得	-11.2951
石梁	-11.2953
奔进	-11.2953
在那边	-11.2953
你呢	-11.2954
做过	-11.2954
之面	-11.2959
几个字	-11.2961
正教	-11.2961
是否能	-11.2964
局面	-11.2965
你再不	-11.2967
十岁	-11.2968
你刚才	-11.2969
八字	-11.2974
也未	-11.2977
盼你	-11.2978
知道这	-11.2979
下棋	-11.298
撞上	-11.298
见到你	-11.298
狗贼	-11.2984
血流	-11.2984
铁锤	-11.2985
含有	-11.2988
说话的	-11.2988
连刺	-11.2991
替她	-11.2993
此次	-11.2993
带你	-11.2994
只不知	-11.2996
姑苏	-11.2996
加紧	-11.3002
柄长剑	-11.3002
感奇怪	-11.3002
在桃花岛	-11.3002
去找他	-11.3003
一具	-11.3003
充满	-11.3009
书写	-11.3011
确有	-11.3012
红色	-11.3013
又会	-11.3013
用来	-11.3014
找我	-11.3014
师父说	-11.3016
不坏	-11.3018
纵身跃	-11.302
伸手抓住	-11.3023
重又	-11.3024
气势	-11.3025
欺到	-11.3026
砰	-11.3026
驸马	-11.3027
言下	-11.3029
少妇	-11.3029
屏	-11.3029
盏	-11.3038
睡着	-11.304
毒酒	-11.304
有失	-11.3041
绝非	-11.3041
两句话	-11.3042
精力	-11.3044
二十余	-11.3048
草丛	-11.305
疯疯癫癫	-11.3055
狱	-11.3056
眼色	-11.3057
怎地不	-11.3058
凄	-11.306
足了	-11.3061
棚	-11.3061
越走越	-11.3061
学武之人	-11.3061
饼	-11.3062
申	-11.3062
暮	-11.3064
史叔刚	-11.3064
络	-11.3064
一瞥眼间	-11.3064
波涛	-11.3065
凄厉	-11.3065
栗	-11.3065
耍	-11.3065
金创药	-11.3065
污秽	-11.3065
邪术	-11.3065
爬起身来	-11.3065
只打得	-11.3065
天下无双	-11.3065
桌椅	-11.3065
俊雅	-11.3065
铜镜	-11.3065
脸露微笑	-11.3065
慑	-11.3065
赎	-11.3065
不敢贸然	-11.3065
正人君子	-11.3066
喧	-11.3066
洪老帮主	-11.3066
南征	-11.3066
花言巧语	-11.3066
傲慢	-11.3066
置之度外	-11.3066
武穆遗书	-11.3066
异状	-11.3066
世界	-11.3066
契丹武士	-11.3066
跟在后面	-11.3066
胸襟	-11.3066
纹丝不动	-11.3066
僵持	-11.3066
凄苦	-11.3066
铁匠	-11.3066
聘	-11.3066
纪姑姑	-11.3066
一笔	-11.3067
缘根	-11.3067
咭	-11.3067
雄浑	-11.3067
焦虑	-11.3067
得到讯息	-11.3067
参详	-11.3067
北冥神功	-11.3067
周旋	-11.3067
智光大师	-11.3067
忠义	-11.3067
一番好意	-11.3068
刺他	-11.3068
嫂子	-11.3068
连连摇头	-11.3068
极厉害的	-11.3069
半身	-11.307
两个时辰	-11.307
孤身一人	-11.307
木板	-11.3071
都没	-11.3071
数十招	-11.3071
不干	-11.3072
份量	-11.3072
青城弟子	-11.3072
何时	-11.3073
空智大师	-11.3073
真能	-11.3073
光临	-11.3074
难以抵挡	-11.3074
也难	-11.3074
日后再	-11.3074
撇下	-11.3075
拔足	-11.3076
豪气	-11.3076
点头称是	-11.3076
方圆	-11.3077
怒色	-11.3077
潮水	-11.3077
讨教	-11.3077
飞扬	-11.3077
围在	-11.3078
脸上肌肉	-11.3078
宋兄弟	-11.3078
给我瞧瞧	-11.3079
相碰	-11.3081
一个少年	-11.3081
脑后	-11.3082
第三次	-11.3082
本来面目	-11.3083
见了他	-11.3085
大庄主	-11.3085
马道长	-11.3086
性急	-11.3086
和小龙女	-11.3086
将我杀了	-11.3087
殊不知	-11.3088
给自己	-11.3088
他竟	-11.3088
先父	-11.3089
嵩山弟子	-11.309
实已	-11.309
教导	-11.3093
一桩	-11.3093
留心	-11.3094
架子	-11.3094
不孝	-11.3095
所创	-11.3095
管得	-11.3095
青年	-11.3096
我帮	-11.3097
推拿	-11.3098
相传	-11.3099
兵法	-11.3099
五岳派掌门	-11.3099
夹击	-11.31
领着	-11.31
强弱	-11.3101
呈上	-11.3101
在古墓中	-11.3101
横刀	-11.3103
爹妈	-11.3104
事务	-11.3109
真情	-11.311
▁...”	-11.3113
麻袋	-11.3114
气象	-11.3117
原该	-11.3118
快乐	-11.3119
击毙	-11.312
亲眼	-11.312
跃过	-11.3121
那矮胖子	-11.3122
岂不是好	-11.3124
她爹爹	-11.3125
一倍	-11.3127
无理	-11.3128
那两人	-11.3129
如何敢	-11.313
守住	-11.3131
受重伤	-11.3131
不发	-11.3132
南北	-11.3133
情急	-11.3134
言念及	-11.3138
打来	-11.3139
发难	-11.314
违抗	-11.314
断绝	-11.3141
先去	-11.3143
因此上	-11.3143
闪开	-11.3146
神山	-11.3146
你只须	-11.3147
我自	-11.3148
大增	-11.3148
五尺	-11.3149
有多大	-11.315
两个孩子	-11.315
白天	-11.3151
有恩	-11.3151
激得	-11.3151
书呆子	-11.3152
大小姐	-11.3156
多谢了	-11.3157
运用	-11.3162
把他	-11.3162
掌柜的	-11.3163
随即又	-11.3163
安睡	-11.3166
击得	-11.3168
已近	-11.3168
难事	-11.3169
墙外	-11.3172
重会	-11.3172
大难	-11.3175
杰	-11.3178
小鬼	-11.3178
你会	-11.318
刺中	-11.318
那日我	-11.3181
刷刷刷	-11.3182
自然而然	-11.3183
打坐	-11.3184
一伙	-11.3185
奔回	-11.3185
不传	-11.3187
等他	-11.3188
念及	-11.3189
伸左手	-11.319
在少林寺	-11.3196
这丫头	-11.3196
知他是	-11.3198
这一指	-11.3198
有心要	-11.3199
凭他	-11.3202
钉在	-11.3202
每个	-11.3203
元军	-11.3203
走吧	-11.3204
傻姑道	-11.3206
一并	-11.3209
镖局中	-11.3209
凝望	-11.321
回护	-11.3211
不义	-11.3213
外的	-11.3213
露出了	-11.3213
双拳	-11.3218
裹在	-11.3218
块大石	-11.3219
小女	-11.322
十斤	-11.322
你可别	-11.3225
大意	-11.3225
用过	-11.3227
我便是	-11.3227
千年	-11.3236
一干	-11.3239
他所	-11.3239
怎样了	-11.324
大火	-11.324
处死	-11.324
这六人	-11.3242
行人	-11.3249
剑下	-11.325
好友	-11.3251
凳	-11.3252
僧侣	-11.3252
交代	-11.3255
有声	-11.3257
说给	-11.3258
身有	-11.3259
太重	-11.3259
仍在	-11.326
遵从	-11.326
山门	-11.326
不满	-11.3261
咱们就	-11.3263
得过	-11.3263
负着	-11.3264
你这个	-11.3265
正经	-11.3266
三千	-11.3268
料理	-11.3273
你们要	-11.3275
相迎	-11.3275
拉住了	-11.3277
上代	-11.328
北上	-11.3281
冰火岛	-11.3281
缩手	-11.3281
焉有	-11.3282
遥	-11.3284
轻重	-11.3285
的好处	-11.3287
被擒	-11.329
微侧	-11.3291
也是个	-11.3292
波的一声	-11.3294
教过	-11.3294
难道这	-11.3296
婆娘	-11.3296
砍下	-11.3299
顷刻间便	-11.3299
不惧	-11.3304
邓百川等	-11.3305
长身	-11.3305
一朵	-11.3306
只是个	-11.3308
封住	-11.331
这几个	-11.3311
乱石	-11.3312
的方位	-11.3317
了几次	-11.332
门来	-11.332
在蒙古	-11.3322
死啦	-11.3322
还可	-11.3326
居然也	-11.3327
个个都是	-11.3328
托在	-11.3328
生事	-11.3328
心中一惊	-11.3329
不说话	-11.3329
拳掌	-11.333
他将	-11.333
骏马	-11.3331
左手食指	-11.3331
怪客	-11.3334
找了	-11.3334
心中都	-11.3336
慈	-11.3337
曾在	-11.3337
不知是谁	-11.3338
劲急	-11.3339
奴	-11.334
出自	-11.334
吃完	-11.334
受苦	-11.3341
思量	-11.3343
击向	-11.3345
这些话	-11.3345
在侧	-11.3346
傲	-11.3346
只是我	-11.3349
十七八	-11.3349
醋	-11.3354
貂	-11.3354
拟	-11.3354
注视	-11.3355
封禅台	-11.3355
雁门关	-11.3356
听话	-11.3356
促	-11.3356
生的	-11.3356
汁	-11.3356
淹	-11.3357
粮	-11.3357
润	-11.3357
忍耐	-11.3357
压根儿	-11.3358
梵文	-11.3358
滞	-11.3358
自今而后	-11.3358
皱	-11.3358
煎	-11.3359
波斯三使	-11.3359
冰窖	-11.3359
无冤无仇	-11.3359
高姓大名	-11.3359
默然不语	-11.3359
皇爷	-11.3359
祁	-11.3359
晶莹	-11.3359
目瞪口呆	-11.3359
拜我为师	-11.3359
皱起眉头	-11.336
脸色苍白	-11.336
负在背上	-11.336
机警	-11.336
王八蛋	-11.336
决一死战	-11.336
欣慰	-11.336
监视	-11.336
流云使	-11.336
惊疑不定	-11.336
到了极处	-11.336
偎	-11.336
争辩	-11.336
谢天谢地	-11.336
遂	-11.3361
鸽	-11.3361
吴光胜	-11.3361
成千成万	-11.3361
称之为	-11.3361
瞧不清楚	-11.3361
察合台	-11.3361
违背	-11.3361
铁锚	-11.3361
碧绿	-11.3362
僵硬	-11.3362
酣斗	-11.3362
斗篷	-11.3362
知客僧	-11.3363
少林群僧	-11.3363
结义	-11.3363
兴致	-11.3363
了几声	-11.3363
东方教主	-11.3363
桌边	-11.3364
尊敬	-11.3364
安答	-11.3364
妙计	-11.3364
刘师叔	-11.3365
头脸	-11.3365
叮当	-11.3365
原谅	-11.3365
要用	-11.3366
倒不	-11.3366
乐厚	-11.3366
钢抓	-11.3367
怨毒	-11.3368
平婆婆	-11.3369
一招一式	-11.3369
试演	-11.3369
确然	-11.337
这些日子来	-11.337
晕红	-11.3371
触手	-11.3372
一旦	-11.3372
要不然	-11.3373
安葬	-11.3373
下的毒手	-11.3374
即刻	-11.3374
的道人	-11.3374
疑难	-11.3374
一幌	-11.3375
才将	-11.3375
欧阳锋笑道	-11.3376
向里	-11.3376
连攻	-11.3376
驰到	-11.3377
提了起来	-11.3377
小时候	-11.3377
王家	-11.3377
精微	-11.3377
任谁	-11.3377
母子	-11.3379
尽快	-11.338
的解药	-11.338
两侧	-11.338
地牢	-11.3382
打猎	-11.3382
床边	-11.3383
气度	-11.3384
曲子	-11.3385
泥沙	-11.3385
拳招	-11.3386
武功不弱	-11.3386
感到一阵	-11.3387
他体内	-11.3388
被害	-11.3389
他内力	-11.339
制服	-11.339
世事	-11.3392
分辨	-11.3393
拜了	-11.3393
之象	-11.3393
接战	-11.3393
女真人	-11.3396
西方	-11.3398
流水	-11.3399
秃头	-11.3399
拆到	-11.34
拨开	-11.34
料定	-11.34
传他	-11.34
手中拿着	-11.3401
有过	-11.3402
照着	-11.3402
黄姑娘	-11.3403
波斯人	-11.3405
后洞	-11.3405
也自	-11.3406
却如何	-11.3407
无常	-11.3408
本门的	-11.341
面壁	-11.341
再也无法	-11.3411
表姊	-11.3412
奇事	-11.3412
拿手	-11.3413
最高	-11.3413
回思	-11.3413
逼出	-11.3416
永远不	-11.3416
为止	-11.3416
大殿上	-11.3417
厅门	-11.3417
伤口中	-11.3418
念经	-11.3421
便听得	-11.3421
一条大	-11.3422
我这就	-11.3423
盘膝坐在	-11.3423
搭在	-11.3425
开来	-11.3431
雁门关外	-11.3433
可是这	-11.3433
百出	-11.3434
常说	-11.3435
他适才	-11.3436
我今日	-11.3437
既出	-11.3439
坐倒在地	-11.3439
留下了	-11.3439
多问	-11.3446
空相	-11.3447
的心思	-11.3448
握住了	-11.3448
说她	-11.3449
去接	-11.345
的暗器	-11.3452
跌下	-11.3453
飞到	-11.3454
石棺	-11.3456
刺来	-11.3458
人头	-11.3458
是假	-11.3459
酒来	-11.3461
在手中	-11.3463
大队	-11.3464
你干什么	-11.3464
到手	-11.3467
这三招	-11.3469
抢上去	-11.3472
一架	-11.3473
走动	-11.3473
轰轰	-11.3475
其余的	-11.3476
那真是	-11.3476
惹得	-11.3478
压得	-11.3479
若干	-11.3479
奸计	-11.348
也只是	-11.3484
凄然道	-11.3484
手劲	-11.3485
不论如何	-11.3488
有气	-11.349
出路	-11.3493
早在	-11.3494
踏出	-11.3495
了七八	-11.3495
跃下马	-11.3495
小径	-11.3496
踢得	-11.3496
之深	-11.3498
墙角	-11.3503
但也	-11.3503
急跃	-11.3506
武功高	-11.3509
深山	-11.3513
不是好人	-11.3514
冲上	-11.3521
国王	-11.3522
普	-11.3524
问明	-11.3524
相去	-11.3525
我几时	-11.3528
谁敢	-11.3533
相干	-11.3533
扮成	-11.3534
落得	-11.3534
火焰刀	-11.3535
也决不会	-11.3536
猜到了	-11.3536
我爹爹妈妈	-11.3538
叫骂	-11.3538
斜斜	-11.3541
令我	-11.3542
这一路	-11.3542
远不如	-11.3543
心下甚是	-11.3544
竟连	-11.3545
山西	-11.3546
处所	-11.3547
一卷	-11.3549
北风	-11.3549
▁们	-11.355
怎肯	-11.3551
散了	-11.3553
忙将	-11.356
这六个	-11.3563
庙门	-11.3563
戴上	-11.3564
贴身	-11.3565
艘	-11.3573
西藏	-11.3574
自不免	-11.3576
拍手道	-11.3576
在岛上	-11.3578
来人	-11.3579
那男子	-11.3584
所指	-11.3584
却如	-11.3585
悠悠	-11.359
马前	-11.3592
口边	-11.3592
要旨	-11.3593
头来	-11.3593
我姑姑	-11.3595
日前	-11.3598
天井	-11.3601
好生感激	-11.3602
似的	-11.3602
这一手	-11.3603
他身前	-11.3604
腰刀	-11.3606
只是想	-11.3608
跟咱们	-11.3609
齐叫	-11.3609
掉了	-11.3616
是血	-11.3621
不甚	-11.3621
一瞧	-11.3622
▁中	-11.3624
的尸首	-11.363
耐	-11.3631
倘若不	-11.3632
七子	-11.3632
与黄药师	-11.3637
纪	-11.3638
酿	-11.3639
铸成	-11.364
慕容家	-11.364
忿	-11.3641
哭得	-11.3641
在外面	-11.3643
后领	-11.3643
把守	-11.3645
马蹄声	-11.3646
个筋斗	-11.3648
妾	-11.3648
武术	-11.3649
绵	-11.3651
方知	-11.3652
什	-11.3652
做皇帝	-11.3652
虚实	-11.3653
大燕	-11.3655
今日是	-11.3655
襄	-11.3657
乏	-11.3658
大德	-11.3659
灶	-11.366
焰	-11.366
一个人影	-11.366
简管家	-11.366
奈何	-11.366
暴躁	-11.366
那老丐	-11.366
侧耳倾听	-11.3661
惑	-11.3661
腔	-11.3661
迭	-11.3661
剌	-11.3661
听过	-11.3661
涛	-11.3661
嘶哑	-11.3661
贪生怕死	-11.3661
点了穴道	-11.3661
吕文德	-11.3661
郁郁	-11.3661
庄聚贤	-11.3662
茅舍	-11.3662
垫	-11.3662
狡狯	-11.3662
瑰	-11.3662
谈何容易	-11.3662
筒	-11.3662
乱七八糟	-11.3662
独个儿	-11.3662
精奥	-11.3662
飘逸	-11.3662
四肢百骸	-11.3662
悠悠醒转	-11.3662
倚多为胜	-11.3663
木鼎	-11.3663
聪辩先生	-11.3663
分从左右	-11.3663
出尘子	-11.3663
天真烂漫	-11.3663
研习	-11.3663
拉住他	-11.3663
呼呼风响	-11.3663
坠	-11.3663
大开眼界	-11.3663
一转念间	-11.3663
疑窦	-11.3663
赔罪	-11.3663
有凤来仪	-11.3663
史氏兄弟	-11.3663
东南西北	-11.3663
曼陀山庄	-11.3663
冯铁匠	-11.3663
神通广大	-11.3663
挺身而出	-11.3663
含糊	-11.3663
多管闲事	-11.3664
见识见识	-11.3664
奈何不了	-11.3664
俞三侠	-11.3664
清誉	-11.3664
朱伯伯	-11.3664
奉承	-11.3664
奔腾	-11.3664
(6)	-11.3665
完颜	-11.3665
是我师父	-11.3665
悟性	-11.3665
金娃娃	-11.3665
仁兄	-11.3665
派遣	-11.3665
悲痛	-11.3666
循声	-11.3666
跪在地下	-11.3666
斟酒	-11.3666
隔了一会	-11.3667
记号	-11.3667
只用	-11.3667
发泄	-11.3667
坚硬	-11.3668
奸恶	-11.3668
退避	-11.3668
愁苦	-11.3669
隐隐觉得	-11.3669
尽量	-11.367
冤家	-11.367
洞内	-11.367
不敢怠慢	-11.367
茶杯	-11.3671
相抵	-11.3671
并派	-11.3672
汗水	-11.3672
径向	-11.3672
抢步	-11.3673
少林寺方丈	-11.3673
上加	-11.3673
不可不戒	-11.3673
跳跃	-11.3674
也是无用	-11.3675
过不去	-11.3675
荒僻	-11.3675
相顾	-11.3675
骨肉	-11.3676
嘴边	-11.3676
个大字	-11.3676
担当	-11.3676
凝聚	-11.3676
扑通	-11.3677
斯文	-11.3677
佛门弟子	-11.3678
不测	-11.3678
允可	-11.3678
形相	-11.3679
已经死了	-11.3681
不忿	-11.3682
蛇杖	-11.3682
具尸体	-11.3682
消了	-11.3682
的只是	-11.3684
雪花	-11.3685
手中接过	-11.3686
少年时	-11.3687
精进	-11.3688
铃	-11.3688
笑声中	-11.3689
进退	-11.3691
找些	-11.3691
轻轻叹了口气	-11.3691
艘船	-11.3692
幸而	-11.3693
陪笑道	-11.3693
一连	-11.3693
乔装	-11.3694
打中了	-11.3694
玩儿	-11.3695
围着	-11.3696
后梢	-11.3696
休得	-11.37
却不见	-11.37
客店中	-11.3701
分为	-11.3705
之于	-11.3706
悄声道	-11.371
曾有	-11.371
之形	-11.3715
借了	-11.3716
拉着他	-11.3717
学问	-11.3717
出丑	-11.3717
最大的	-11.372
挥拳	-11.372
齐声答应	-11.372
塞入	-11.3721
打算	-11.3723
一张脸	-11.3723
扮作	-11.3723
从没	-11.3724
发招	-11.3725
此人武功	-11.3726
的一声惊呼	-11.3726
将他杀了	-11.3726
之死	-11.3727
见黄蓉	-11.3728
突出	-11.3728
谅来	-11.3729
就只怕	-11.3729
端起	-11.3729
亦是	-11.373
早些	-11.3731
无缘	-11.3731
不悔	-11.3732
的手下	-11.3735
上前动手	-11.3736
寒玉床	-11.3736
惟有	-11.3737
婢子	-11.3737
的高招	-11.3741
好小子	-11.3741
的正是	-11.3742
后堂	-11.3743
的门下	-11.3746
嗤嗤嗤	-11.3746
化作	-11.3747
求饶	-11.3752
正与	-11.3752
便从	-11.3752
比他	-11.3756
不舒服	-11.3757
俗家	-11.3759
满心	-11.3764
引开	-11.3764
好险	-11.3765
第三个	-11.3767
你爹	-11.3767
竹杖	-11.3768
来罢	-11.3771
极尽	-11.3773
布条	-11.3774
在西域	-11.3776
与欧阳锋	-11.3776
碑	-11.3778
冲进	-11.378
还没死	-11.378
窗下	-11.3781
教的	-11.3785
将上去	-11.3785
那才是	-11.3787
厅堂	-11.3788
战阵	-11.3789
兀自未	-11.3791
他身边	-11.3794
那少女笑道	-11.3795
令狐冲长剑	-11.3795
见令狐冲	-11.3796
你怎么啦	-11.3798
的英雄	-11.3798
短箭	-11.38
不知要	-11.38
也不过是	-11.38
你是我	-11.3802
那孩子	-11.3802
未死	-11.3803
大臣	-11.3804
掌心中	-11.3806
贵客	-11.3806
将到	-11.3806
和他们	-11.3806
他说话	-11.3807
侠义道	-11.3807
也不理会	-11.381
时机	-11.381
驰去	-11.3811
的血	-11.3811
盗去	-11.3812
浑不	-11.3817
低了	-11.3817
钻进	-11.3819
我华山派	-11.3823
花园	-11.3823
而成	-11.3825
露了	-11.3833
看着	-11.3835
进击	-11.384
了一个多时辰	-11.3841
欺侮你	-11.3841
已深	-11.3845
一个念头	-11.3846
抢去	-11.3846
妇女	-11.3848
奇了	-11.3849
顾全	-11.385
武功的	-11.3854
运内力	-11.3857
背向	-11.386
的凶手	-11.3862
之众	-11.3864
如能	-11.3873
完全	-11.3874
出马	-11.3877
三件	-11.3879
惨呼	-11.388
老虎	-11.388
咱们到	-11.3885
东南	-11.3886
着火	-11.3888
因此而	-11.389
我都	-11.3896
的一声响	-11.39
火烧	-11.39
隔了	-11.3901
有仇	-11.3902
穿上	-11.3903
阻挡	-11.3903
倒要	-11.3903
随后	-11.3905
的故事	-11.3906
我不信	-11.3906
六个人	-11.3911
情郎	-11.3912
介	-11.3913
这是甚么	-11.3914
再使	-11.392
听师父	-11.3926
怕甚么	-11.3927
两只手	-11.3928
扑击	-11.3931
锣	-11.3933
至少	-11.3933
她既	-11.3934
歹	-11.3937
乱走	-11.394
这天	-11.394
你说什么	-11.3943
退回	-11.3944
年老	-11.3946
的真气	-11.3949
一杖	-11.395
小字	-11.3951
遭了	-11.3953
藏经阁	-11.3957
决计不能	-11.3958
却想	-11.3959
拍落	-11.3963
那和尚	-11.3963
却能	-11.3963
转到	-11.3965
尖锐	-11.3966
越想越	-11.3966
黎	-11.3967
一席	-11.3967
孽	-11.3969
樵	-11.3969
▁手	-11.3969
女真	-11.3969
媳妇	-11.397
精神大振	-11.3971
裸	-11.3972
褚	-11.3972
履	-11.3972
窍	-11.3973
命在顷刻	-11.3973
斫	-11.3973
钗	-11.3973
篮	-11.3973
远了	-11.3974
勇士	-11.3974
救命之恩	-11.3974
糖	-11.3974
瘫	-11.3974
萧大王	-11.3974
傅思归	-11.3974
迁	-11.3974
脑浆迸裂	-11.3974
俘虏	-11.3974
全真五子	-11.3975
冒昧	-11.3975
居高临下	-11.3975
宝树王	-11.3975
搞	-11.3975
圆球	-11.3975
行了一礼	-11.3975
站立不定	-11.3975
渺	-11.3975
钦服	-11.3975
鸳	-11.3975
伸出手去	-11.3976
雌雕	-11.3976
苟	-11.3976
锈	-11.3976
溢	-11.3976
蝶	-11.3976
筵席	-11.3976
缰绳	-11.3977
蛟	-11.3977
陪伴	-11.3977
歇宿	-11.3977
平大夫	-11.3977
站在当地	-11.3977
纯熟	-11.3977
图谱	-11.3978
萧大侠	-11.3978
幸好他	-11.3978
于嫂	-11.3978
饭铺	-11.3978
法王等	-11.3979
枝叶	-11.3979
干预	-11.3979
惧意	-11.3979
不戒大师	-11.3979
跪下磕头	-11.398
深恐	-11.398
熄灭	-11.398
满腹	-11.398
各执	-11.398
朕	-11.398
半寸	-11.398
恁地	-11.3981
苍老	-11.3982
不知怎的	-11.3982
王旗	-11.3982
狮子	-11.3982
便在这时	-11.3983
修习内功	-11.3983
黑烟	-11.3983
恶徒	-11.3983
焚烧	-11.3984
远胜	-11.3985
铁桶	-11.3985
五岳	-11.3985
渐感	-11.3986
本将军	-11.3987
身上有伤	-11.3987
要他们	-11.3987
草木	-11.3987
徒然	-11.3987
阵中	-11.3987
渐远	-11.3988
大伙	-11.3988
很久	-11.3989
相互间	-11.3989
含笑	-11.3991
自恃	-11.3992
孤零零的	-11.3992
曲谱	-11.3992
觉得怎样	-11.3993
团团围住	-11.3993
白影	-11.3995
传功	-11.3996
运转	-11.3996
不睬	-11.3996
一条条	-11.3997
管家	-11.3998
携带	-11.4
心跳	-11.4
银两	-11.4003
树丛	-11.4003
异样	-11.4003
临安府	-11.4004
白玉	-11.4004
贵寺	-11.4005
敬仰	-11.4006
杨家	-11.4006
手提	-11.4011
海外	-11.4012
更有人	-11.4013
落在地下	-11.4014
毒水	-11.4016
入睡	-11.4016
听见过	-11.4016
一颤	-11.4017
大穴	-11.4018
一个人来	-11.4019
无处	-11.4021
推想	-11.4023
停在	-11.4023
想念	-11.4023
武学高手	-11.4024
落空	-11.4027
周到	-11.4028
苦心	-11.4028
非得	-11.403
想到这里	-11.4033
向众人	-11.4033
没再	-11.4034
不改	-11.4035
都吃了一惊	-11.4036
半日	-11.4039
身世	-11.4039
逃开	-11.404
府中	-11.4041
咱们还是	-11.4041
改了	-11.4044
挽住	-11.4045
还望	-11.4046
牵挂	-11.4046
的头	-11.4047
一个男子	-11.4047
的诸般	-11.4048
瞧不出来	-11.4048
海面	-11.4049
山道上	-11.4049
有的是	-11.405
两人都是	-11.4051
来袭	-11.4051
武功虽然	-11.4054
停手	-11.4058
须知	-11.4058
处女	-11.4059
蒙古兵将	-11.4063
自认	-11.4064
的掌法	-11.4065
戴了	-11.4065
你们的	-11.4065
的一声轻响	-11.4068
嗤	-11.4068
罢斗	-11.4068
看那	-11.407
点了他	-11.4073
难言	-11.4073
游走	-11.4074
料理了	-11.4075
相撞	-11.4076
一时却	-11.4076
截住	-11.4077
脚边	-11.4077
纵上	-11.4081
三月	-11.4082
又不能	-11.4083
一座大	-11.4083
惊动	-11.4085
几上	-11.4086
之奇	-11.4086
我等	-11.4091
的小姑娘	-11.4092
随从	-11.4093
那女人	-11.4094
之用	-11.4095
要将他	-11.4096
了几分	-11.4097
来得及	-11.4099
说自己	-11.4099
向萧峰	-11.4099
听人	-11.4102
难保	-11.4104
男弟子	-11.4106
求他	-11.4106
爬起	-11.411
拔下	-11.411
是给	-11.411
决心	-11.4112
无幸	-11.4114
好得很啊	-11.4114
这老贼	-11.4116
带我去	-11.4118
救了我	-11.4118
惊喜	-11.4119
下楼	-11.412
的神气	-11.4124
的病	-11.4125
放脱	-11.4126
痕迹	-11.4126
突然想起	-11.4127
听了这几句话	-11.4129
两颗	-11.4132
老三	-11.4132
不失	-11.4134
那少年道	-11.4134
要杀你	-11.4134
出来了	-11.4135
师长	-11.4136
本派掌门	-11.4136
得一	-11.4138
在山上	-11.4141
山谷中	-11.4142
不差	-11.4144
耶律齐道	-11.4144
两匹马	-11.4144
亭中	-11.4145
生怕他	-11.4146
肯不肯	-11.4147
练这	-11.4148
都是一样	-11.4151
这两下	-11.4151
飞刀	-11.4153
院子	-11.4154
杨过见他	-11.4156
之女	-11.4158
这恶人	-11.4161
极力	-11.4162
许多人	-11.4163
令狐冲心下	-11.4164
西湖	-11.4167
高见	-11.4168
石洞	-11.4169
咱们在	-11.4172
人世	-11.4173
两件事	-11.4175
有几个	-11.418
脸上却	-11.4181
一端	-11.4181
箱	-11.4183
刷的一	-11.4183
大金	-11.4183
还道他	-11.4184
踏进	-11.4184
你快快	-11.419
太大	-11.4191
还不如	-11.4194
取来	-11.4194
迫得	-11.4197
但自	-11.4198
柄剑	-11.4199
齐施	-11.4206
说下去	-11.4207
性儿	-11.4208
直扑	-11.421
勾当	-11.4218
我这个	-11.4219
你有	-11.4219
停了	-11.4222
钻入了	-11.4223
窗子	-11.4223
要以	-11.4225
杏	-11.4226
的徒弟	-11.4231
碗中	-11.4232
来求	-11.4233
寻常的	-11.4235
赫然	-11.4235
右眼	-11.4237
是什么东西	-11.4238
之期	-11.424
百人	-11.424
只要一	-11.424
婢	-11.4244
才智	-11.4244
他小腹	-11.4244
诸派	-11.4245
两者	-11.4246
唤	-11.4246
厢	-11.4247
到那边	-11.4249
总之	-11.4252
说不上	-11.4253
舱门	-11.4253
莽撞	-11.4253
鼓声	-11.4255
做事	-11.4255
房里	-11.4256
和郭靖	-11.4257
鞍	-11.4259
甚大	-11.4259
追问	-11.4259
猛往	-11.426
千斤	-11.4261
之主	-11.4262
叩	-11.4263
箭射	-11.4265
一侧	-11.4266
当当	-11.427
液	-11.427
阿二	-11.4272
几块	-11.4273
从她	-11.4273
叫了	-11.4274
杀敌	-11.4275
走了出来	-11.4279
躁	-11.428
又见他	-11.4281
康	-11.4283
厉	-11.4283
黑夜	-11.4284
确也	-11.4285
不敢再说	-11.4285
遇见	-11.4285
众多	-11.4287
相好	-11.4287
酒香	-11.429
反正我	-11.4291
郭靖笑道	-11.4291
橱	-11.4292
捣	-11.4294
县	-11.4294
包惜弱道	-11.4295
禽兽	-11.4295
宠	-11.4295
一往情深	-11.4296
韧	-11.4296
蟋蟀	-11.4296
青翼蝠王	-11.4296
形迹	-11.4296
听而不闻	-11.4296
惨酷	-11.4296
绵绵	-11.4296
联络	-11.4296
喇	-11.4296
腐	-11.4296
崇	-11.4296
涨	-11.4296
狡	-11.4296
紫衫龙王	-11.4297
头下脚上	-11.4297
餐	-11.4297
填	-11.4297
四位庄主	-11.4297
珍贵	-11.4297
藉	-11.4297
摧	-11.4297
立足不定	-11.4297
赤手空拳	-11.4297
大轮明王	-11.4297
湘	-11.4297
无穷无尽	-11.4297
扫帚	-11.4297
扁担	-11.4297
爵	-11.4297
七日七夜	-11.4297
活得不耐烦了	-11.4297
恰到好处	-11.4297
肤	-11.4297
姚清泉	-11.4298
达摩老祖	-11.4298
嘘	-11.4298
不碍事	-11.4298
范右使	-11.4298
虬髯	-11.4298
千千万万	-11.4298
乘人之危	-11.4298
得稀烂	-11.4298
哎哟	-11.4298
切磋	-11.4298
肩膀	-11.4298
陆家庄	-11.4298
不胜之喜	-11.4298
汴梁	-11.4298
粗鲁	-11.4298
娇艳	-11.4298
星宿派门人	-11.4298
莽牯朱蛤	-11.4299
大惊失色	-11.4299
傻瓜	-11.4299
步履	-11.4299
君臣	-11.4299
酸痛	-11.4299
睡梦中	-11.4299
碎片	-11.43
鲁长老	-11.43
斜刺里	-11.43
黑衣汉子	-11.43
耻笑	-11.43
红烛	-11.43
全舵主	-11.43
受了重伤	-11.4301
线索	-11.4301
丸药	-11.4301
不对了	-11.4301
寸许	-11.4301
奸细	-11.4301
麻木	-11.4301
说不出口	-11.4301
宰相	-11.4302
拿捏	-11.4302
全身发抖	-11.4303
伤他性命	-11.4303
风景	-11.4303
结识	-11.4303
配合	-11.4304
空闻大师	-11.4305
即行	-11.4305
抛在地下	-11.4305
执掌	-11.4306
已不知去向	-11.4306
饶命	-11.4307
知道他	-11.4307
没用	-11.4309
便到	-11.4309
玄难大师	-11.4309
契丹兵	-11.431
小艇	-11.431
这三个	-11.4311
可又	-11.4311
流动	-11.4311
忠心	-11.4312
请两位	-11.4313
围墙	-11.4314
多承	-11.4314
不要紧	-11.4314
嵩山剑法	-11.4314
猛然	-11.4314
人氏	-11.4314
头戴	-11.4314
飘动	-11.4315
遥遥	-11.4316
粗声	-11.4317
失礼	-11.4318
太阳穴	-11.4319
甚轻	-11.432
何苦	-11.4321
虽知	-11.4321
便打	-11.4322
驾到	-11.4323
此中	-11.4323
通红	-11.4324
实情	-11.4325
拔起	-11.4327
短短	-11.4327
任他	-11.4328
受用	-11.4329
华山剑法	-11.4329
金花	-11.4329
心灵	-11.4329
斥责	-11.433
冰魄银针	-11.4331
锦帕	-11.4332
越想越是	-11.4332
遍了	-11.4333
一条性命	-11.4335
大恩	-11.4336
习练	-11.4339
自可	-11.4339
齐名	-11.4339
摔跌	-11.434
平儿	-11.4341
逃不了	-11.4344
一块儿	-11.4348
女孩儿家	-11.4348
坦然	-11.4348
令狐冲心中	-11.4352
那块	-11.4353
此时已	-11.4356
一停	-11.4356
观斗	-11.4358
说些什么	-11.436
真传	-11.4363
头痛	-11.4364
在他肩头	-11.4368
众生	-11.4373
我一生	-11.4377
神力	-11.4377
都知道	-11.4379
的身躯	-11.4379
不浅	-11.438
胜得了	-11.4384
长得	-11.4388
难熬	-11.4388
女子声音	-11.4389
的勾当	-11.4389
所书	-11.439
如何能够	-11.4392
想得到	-11.4392
一寸	-11.4393
就请	-11.4394
拉他	-11.4395
我教你	-11.4396
精奇	-11.4398
盒子	-11.4399
刘正风道	-11.44
拉起	-11.4401
抛去	-11.4402
路径	-11.4403
的经文	-11.4403
继续说道	-11.4404
的头颈	-11.4405
干么要	-11.4406
堂上	-11.4407
硬要	-11.4409
却原来	-11.441
饶了你	-11.4411
必胜	-11.4412
人之	-11.4413
剑刺	-11.4414
出数丈	-11.4417
床前	-11.4417
隐隐传来	-11.4418
两件	-11.442
那船	-11.4421
也不打紧	-11.4423
解说	-11.4423
三杯	-11.4427
说法	-11.4428
杨铁心道	-11.4429
我如	-11.4431
被囚	-11.4432
转头对	-11.4433
见闻	-11.4434
口口声声	-11.4434
总觉	-11.4435
尽心	-11.4435
的经过	-11.4436
对人	-11.4437
的胡子	-11.4438
周密	-11.4438
向敌人	-11.4439
孔中	-11.4439
我生平	-11.4443
出身	-11.4447
这名字	-11.4448
细心	-11.4453
力大	-11.4454
也不想	-11.4457
回房	-11.4459
黄蓉见他	-11.4462
他只道	-11.4463
着落在	-11.4463
湖中	-11.4464
一程	-11.4465
不在乎	-11.4467
有病	-11.4468
当下便	-11.4471
别动	-11.4471
有这许多	-11.4473
倘若她	-11.4475
要了	-11.4475
个响头	-11.4475
一臂	-11.4478
铁桨	-11.4481
再向	-11.4484
又是欢喜	-11.4484
这么好	-11.4485
摔在	-11.4485
脱了	-11.4485
大袖	-11.4488
是个女子	-11.449
你带	-11.4491
此招	-11.4492
的是甚么	-11.4493
同声	-11.4494
掌缘	-11.4495
鼓掌	-11.4498
能将	-11.4498
护着	-11.4498
大喝	-11.45
也给	-11.4503
这句	-11.4505
见他神色	-11.4507
难处	-11.4507
令狐冲又	-11.4509
也都是	-11.4512
杀着	-11.4516
向虚竹	-11.4517
下马来	-11.4518
你要是	-11.4518
全神贯注	-11.4519
我大宋	-11.4519
宜	-11.452
缰	-11.452
扼	-11.4522
中箭	-11.4523
如雷	-11.4526
老贼	-11.453
在道上	-11.4534
到了何处	-11.4534
叫甚么名字	-11.4537
请到	-11.4541
跌在	-11.4542
门上	-11.4545
不伤	-11.4546
百岁	-11.4547
过多少	-11.4549
行径	-11.455
我们的	-11.455
那里还	-11.4554
不高兴	-11.4555
于心	-11.4559
不灵	-11.4561
定下	-11.4561
午后	-11.4564
无形	-11.4565
绿竹	-11.4567
呼喊	-11.4567
阻住	-11.4569
十人	-11.4571
又起	-11.4574
十二年	-11.4575
在左近	-11.4575
道贺	-11.4578
体内真气	-11.4578
众人听了	-11.4579
由于	-11.4581
简直	-11.4585
聋	-11.4588
挡不住	-11.4588
要看	-11.4589
做到	-11.459
远在	-11.4592
千人	-11.4592
十多年来	-11.4593
跃回	-11.4593
的掌门人	-11.4594
你怎么了	-11.4594
霍	-11.4594
路旁	-11.4595
怔	-11.4598
的好朋友	-11.4601
天灵盖	-11.4602
点心	-11.4604
生生	-11.4604
没听见过	-11.4605
作个	-11.4606
决计不肯	-11.4607
持剑	-11.4608
说着伸手	-11.4609
和盈盈	-11.461
楼梯	-11.461
攻向	-11.4613
学到了	-11.4613
只觉全身	-11.4614
张无忌心中	-11.4614
为礼	-11.4617
始终无法	-11.4618
涧	-11.4621
好东西	-11.4622
夕	-11.4622
铁板	-11.4623
一骑	-11.4623
霎	-11.4623
又怎样	-11.4624
例	-11.4625
便在这	-11.4625
资	-11.4625
闪电	-11.4625
挫	-11.4627
诡	-11.4627
驳	-11.4627
有幸	-11.4627
回去罢	-11.4627
铲	-11.4628
敏	-11.4628
贾	-11.4628
一时三刻	-11.4628
窝阔台	-11.4628
涩	-11.4629
葛	-11.4629
判	-11.4629
颠三倒四	-11.4629
卦	-11.4629
大功告成	-11.463
狮鼻人	-11.463
杨龙二人	-11.463
筋疲力尽	-11.463
松球	-11.463
痊可	-11.463
冤孽	-11.463
咸	-11.463
衣衫褴褛	-11.463
酸楚	-11.463
安安静静的	-11.463
荆棘	-11.463
舅舅	-11.463
辉月使	-11.463
斜睨	-11.463
观世音菩萨	-11.463
翻来覆去	-11.463
低下头来	-11.463
维护	-11.463
空见神僧	-11.463
不自量力	-11.463
谭处端	-11.4631
弹指神通	-11.4631
皱起了眉头	-11.4631
棺盖	-11.4631
沉沉睡去	-11.4631
除此之外	-11.4631
一招半式	-11.4631
韦蝠王	-11.4631
打个手势	-11.4631
西夏公主	-11.4631
郁闷	-11.4631
趟子手	-11.4631
记忆	-11.4631
动起手来	-11.4631
琴谱	-11.4631
腮	-11.4631
榜文	-11.4631
殷六侠	-11.4631
郑镖头	-11.4631
哇哇大叫	-11.4631
横了一眼	-11.4631
走近身去	-11.4631
十香软筋散	-11.4632
慧净	-11.4632
娇媚	-11.4632
好端端地	-11.4632
星宿海	-11.4632
血渍	-11.4632
肚皮	-11.4632
激烈	-11.4632
灰影	-11.4632
乔装改扮	-11.4632
神山上人	-11.4632
给我们	-11.4632
应手而	-11.4633
羞辱	-11.4633
题目	-11.4633
峡	-11.4633
龟儿子	-11.4633
逃走了	-11.4633
崖上	-11.4634
财物	-11.4634
青草	-11.4635
巨钟	-11.4635
的胸口	-11.4635
入耳	-11.4635
术赤	-11.4635
岸边	-11.4635
孤苦	-11.4636
交叉	-11.4636
呆立	-11.4636
皮毛	-11.4636
远远传来	-11.4636
遭遇	-11.4637
百余	-11.4638
推去	-11.4638
击下	-11.4638
移步	-11.4638
走了几步	-11.4638
任性	-11.4638
火候	-11.4638
详情	-11.4639
名帖	-11.4639
长叹	-11.4639
练习	-11.464
被窝	-11.464
投掷	-11.464
美人儿	-11.464
身子摇晃	-11.464
相击	-11.464
座位	-11.4641
宋远桥等	-11.4641
外敌	-11.4641
深仇	-11.4641
悲伤	-11.4642
尔等	-11.4642
出任	-11.4642
一早	-11.4642
疯子	-11.4643
高低	-11.4644
放回	-11.4644
飞了出去	-11.4645
押着	-11.4645
擅自	-11.4645
白熊	-11.4646
诚心	-11.4647
当先一人	-11.4647
后人	-11.4648
冷然	-11.4648
挟着	-11.4648
也是好的	-11.4648
行功	-11.4648
怪蛇	-11.4649
在洛阳	-11.465
散乱	-11.465
海边	-11.4651
黑夜中	-11.4651
害死我	-11.4652
七怪	-11.4652
矮身	-11.4652
烟雾	-11.4652
之技	-11.4653
交战	-11.4653
福气	-11.4654
有一事	-11.4655
来救我	-11.4655
▁上	-11.4656
毒液	-11.4656
虽见	-11.4657
打滚	-11.4657
张翠山和殷素素	-11.4657
不由	-11.4657
潜入	-11.4658
做梦	-11.4659
不出声	-11.4661
榻上	-11.4662
行走江湖	-11.4662
发烧	-11.4662
瞧得起	-11.4663
那句话	-11.4665
这贱人	-11.4665
山洞之中	-11.4665
打仗	-11.4666
狠心	-11.4666
是哪一位	-11.4668
大宗师	-11.4669
番邦	-11.4669
长臂	-11.4669
第一招	-11.467
哼的一声	-11.467
有一件事	-11.467
墓前	-11.4671
细想	-11.4671
项颈	-11.4673
早日	-11.4675
求医	-11.4677
打赌	-11.4678
声大作	-11.4678
全神	-11.4678
揭破	-11.4679
响动	-11.4679
替你	-11.4679
头皮	-11.468
老帮主	-11.4683
打手势	-11.4684
也不以为意	-11.4686
奇门	-11.4686
牵过	-11.4688
大喜之下	-11.4688
拘	-11.469
两名汉子	-11.469
老怪	-11.469
马缰	-11.4691
萧峰见	-11.4692
这傻小子	-11.4694
一匹马	-11.4694
接到	-11.4694
暗暗吃惊	-11.4695
两腿	-11.4695
白雾	-11.4697
指上	-11.4697
盗了	-11.4698
山峰上	-11.4699
未定	-11.4702
相让	-11.4702
的修为	-11.4703
自称是	-11.4704
来跟我	-11.4705
也不便	-11.4706
也来了	-11.4707
小嘴	-11.4709
那军官	-11.471
是甚么人	-11.471
小女孩	-11.4711
两枝	-11.4713
武林人物	-11.4713
径往	-11.4713
叫好	-11.4714
房屋	-11.4717
毒誓	-11.4721
盼他	-11.4721
发落	-11.4724
那怪人	-11.4725
总也	-11.4731
几枚	-11.4738
甚远	-11.474
中掌	-11.474
这人是	-11.4743
掌门之位	-11.4743
但教	-11.4743
有甚么事	-11.4745
无关	-11.4746
共是	-11.4747
饶了他	-11.4747
北京	-11.475
回进	-11.4751
五十	-11.4751
听他们	-11.4753
攻来	-11.4754
足以	-11.4754
差了	-11.4755
将这些	-11.4755
绿萼道	-11.4758
说不出	-11.4759
交给了	-11.476
自非	-11.4761
我实在	-11.477
四处	-11.4771
废了	-11.4773
的僧人	-11.4773
的为人	-11.4773
不放心	-11.4774
刀锋	-11.4774
来自	-11.4775
别要	-11.4775
抢在	-11.4776
近前	-11.4776
大不了	-11.4778
吐蕃	-11.4778
此剑	-11.4779
这一番	-11.4781
你可知道	-11.4784
机智	-11.4786
跟我来	-11.4788
一冲	-11.4791
步步	-11.4791
无半分	-11.4796
没听到	-11.4798
崆峒派的	-11.4802
多事	-11.4803
口出	-11.4804
所用	-11.4805
与李莫愁	-11.4807
不放在心上	-11.481
诞	-11.481
直向	-11.481
胜他	-11.4811
▁个	-11.4811
伏下	-11.4811
铁剑	-11.4812
你也不用	-11.4813
墓门	-11.4815
刺瞎	-11.4817
剑来	-11.4817
殿下	-11.4818
反手一掌	-11.4819
向西行	-11.482
分成	-11.4821
下流	-11.4822
的路子	-11.4822
点他	-11.4825
旧情	-11.4825
太极	-11.4825
回掌	-11.483
见段誉	-11.4831
我对	-11.4833
现在	-11.4833
料想他	-11.4834
没半分	-11.4837
又有何用	-11.4838
向来不	-11.484
这一句话	-11.4841
咱们的	-11.4841
为甚么不	-11.4846
下地来	-11.4847
蛇头	-11.4848
嘴上	-11.4848
雪人	-11.4849
领了	-11.4849
端倪	-11.4851
我徒儿	-11.4852
扑在	-11.4854
肚里	-11.4854
自能	-11.4855
伸出右手	-11.4855
杨过大喜	-11.4856
军情	-11.4858
有要事	-11.4859
下垂	-11.4862
难解	-11.4864
敌人的	-11.4866
也决不	-11.4868
也不要	-11.487
有三	-11.487
今日我	-11.487
来看	-11.4874
事后	-11.4874
由你	-11.4874
可是她	-11.4876
点倒	-11.4877
准头	-11.4877
出门去	-11.4881
现下你	-11.4881
听声音	-11.4885
将郭靖	-11.4886
四条	-11.4886
再难	-11.4887
一生一世	-11.4887
谢过	-11.4889
作弄	-11.489
曾见过	-11.489
去想	-11.4893
一回头	-11.4897
如此无礼	-11.4899
▁到	-11.49
凝视着	-11.4901
年纪比	-11.4902
存了	-11.4905
如何是好	-11.4906
追杀	-11.4907
黑衣人	-11.4908
和段誉	-11.4909
叱	-11.4911
气喘	-11.4912
守着	-11.4917
插入了	-11.4918
大业	-11.4918
所学的	-11.4919
剑势	-11.4919
师叔祖	-11.492
一声惊呼	-11.4924
触到	-11.4924
举掌	-11.4926
睁	-11.4926
三十余	-11.4927
庙外	-11.4927
忽有	-11.4928
狂风	-11.4931
一声大叫	-11.4933
思之	-11.4933
掌底	-11.4935
谷口	-11.4936
好得很	-11.4937
只怕你	-11.4939
管教	-11.4939
一动也不动	-11.4941
自保	-11.4942
胖子	-11.4943
快步走	-11.4943
棺	-11.4944
我怎会	-11.4945
也想	-11.4945
串	-11.4946
用了	-11.4948
二次	-11.495
一大碗	-11.495
恃	-11.495
巾	-11.4951
左拳	-11.4952
大路上	-11.4956
直言	-11.4959
知道是	-11.4959
好姑娘	-11.496
鞘	-11.4961
心想此人	-11.4962
认错	-11.4966
怖	-11.4967
满头	-11.4968
九年	-11.4968
询	-11.4968
敌不过	-11.497
饰	-11.497
认不出	-11.497
公孙	-11.4971
爱怜	-11.4971
页	-11.4971
脊	-11.4971
蚕	-11.4972
再也没	-11.4972
韦	-11.4972
肋	-11.4973
纹	-11.4974
范百龄	-11.4974
紫霞秘笈	-11.4974
拜伏在地	-11.4974
许许多多	-11.4974
小无相功	-11.4974
揉	-11.4975
都曾	-11.4975
又有何妨	-11.4975
桃谷四仙	-11.4975
眉头一皱	-11.4975
卫天望	-11.4975
娜	-11.4975
肌	-11.4975
不以为然	-11.4975
旷野	-11.4975
淳	-11.4975
往她	-11.4975
矫捷	-11.4975
视而不见	-11.4975
江南四友	-11.4975
王志坦	-11.4975
轻轻巧巧的	-11.4975
人皮面具	-11.4975
在光明顶上	-11.4975
哗	-11.4975
秀丽	-11.4975
心痒难搔	-11.4976
抡	-11.4976
癫	-11.4976
鬼魅	-11.4976
兆	-11.4976
纵声长笑	-11.4976
此起彼	-11.4976
做声不得	-11.4976
温暖	-11.4976
惊得呆了	-11.4976
博大精深	-11.4976
奖	-11.4976
臻	-11.4976
赫连铁树	-11.4976
踹	-11.4976
打定了主意	-11.4976
火刀火石	-11.4976
史孟捷	-11.4976
发号施令	-11.4976
剧震	-11.4976
拜你为师	-11.4976
淮	-11.4976
羞惭	-11.4976
远远望见	-11.4976
浇	-11.4976
乘隙	-11.4976
见多识广	-11.4976
衣钵	-11.4976
惊怒交集	-11.4977
连连摇手	-11.4977
稀松平常	-11.4977
遗训	-11.4977
抵受不住	-11.4977
转过头去	-11.4977
欣然	-11.4977
花刺子模	-11.4977
趋避	-11.4977
狂怒之下	-11.4977
无色禅师	-11.4977
咱们今日	-11.4977
欧阳先生	-11.4977
俞二侠	-11.4977
珍珑	-11.4977
祝寿	-11.4977
争执	-11.4977
不好意思	-11.4977
示弱	-11.4977
轻轻抚摸	-11.4977
师徒俩	-11.4978
为了何事	-11.4978
泪珠	-11.4978
贪图	-11.4978
酒壶	-11.4979
尸骨	-11.4979
厨子	-11.4979
清秀	-11.498
庄丁	-11.498
由此而	-11.498
微微冷笑	-11.498
受辱	-11.498
机灵	-11.498
听你的话	-11.498
他后心	-11.4981
玩弄	-11.4981
威震天下	-11.4981
边缘	-11.4981
童兄	-11.4982
奇速	-11.4982
母女	-11.4982
率同	-11.4982
蒙古官兵	-11.4982
风老先生	-11.4983
宋夫人	-11.4983
铁尸	-11.4983
底细	-11.4983
的秘密	-11.4983
首次	-11.4984
关系	-11.4984
逐渐	-11.4984
风少侠	-11.4984
此曲	-11.4985
严妈妈	-11.4985
精致	-11.4985
其中必有	-11.4985
咱们快	-11.4985
衣角	-11.4985
亲切	-11.4985
攻去	-11.4986
点穴功夫	-11.4986
每日里	-11.4986
袖手	-11.4986
治愈	-11.4987
陷害	-11.4988
之遥	-11.4988
赵王府	-11.4988
发愁	-11.4988
自然也	-11.4989
一包	-11.499
铁甲	-11.499
转眼便	-11.499
话没说完	-11.4992
门板	-11.4992
精兵	-11.4993
贵重	-11.4994
撑着	-11.4994
铁板上	-11.4994
将头	-11.4994
应了	-11.4994
纸上	-11.4995
树丛中	-11.4995
之辱	-11.4995
事隔	-11.4997
元气	-11.4997
一掷	-11.4998
新鲜	-11.4998
舞剑	-11.4999
摆脱	-11.5
面容	-11.5
差得远了	-11.5001
好不要脸	-11.5001
药方	-11.5002
一楞	-11.5003
残杀	-11.5003
近处	-11.5004
逼得他	-11.5004
怪招	-11.5004
能不能	-11.5005
朱子柳道	-11.5006
你又何必	-11.5006
情理	-11.5006
拉得	-11.5006
也别	-11.5007
谁是	-11.5007
美事	-11.5008
意中人	-11.5009
四海	-11.5009
武家	-11.501
听他这么说	-11.5011
认为	-11.5011
正式	-11.5011
盘子	-11.5012
冷冷	-11.5012
也不算	-11.5012
白骨	-11.5012
叫苦	-11.5012
小王子	-11.5013
那还	-11.5014
学全	-11.5015
的情形	-11.5016
树顶	-11.5018
黑白	-11.5019
为祸	-11.5019
改变	-11.502
男子汉	-11.5022
逼死	-11.5023
请进	-11.5024
在身	-11.5025
这么一个	-11.5026
滚开	-11.5027
那武官	-11.5029
原地	-11.5029
探出	-11.503
败坏	-11.5031
归天	-11.5032
不过我	-11.5034
郭靖和黄蓉	-11.5034
▁么	-11.5039
稍减	-11.5039
进寺	-11.504
父亲的	-11.5041
本书	-11.5042
营中	-11.5042
二三	-11.5043
诸穴	-11.5043
越高	-11.5044
拆开	-11.5045
几手	-11.5045
我五岳剑派	-11.5046
句话	-11.5047
齐声叫道	-11.5047
年轻人	-11.5047
这口气	-11.5048
黑气	-11.5048
乡下人	-11.5048
的遗体	-11.5051
部下	-11.5053
等一干人	-11.5053
望着他	-11.5055
大名	-11.5056
确实	-11.5058
你今日	-11.5058
存心要	-11.5058
断气	-11.506
左近	-11.5061
你义父	-11.5062
放过	-11.5064
为妙	-11.5064
沉沉	-11.5064
轻拍	-11.5064
小可	-11.5065
武功极高	-11.5067
小屋	-11.5068
两处	-11.5068
不知有多少	-11.5069
上马背	-11.507
撞上了	-11.507
上华山	-11.507
楼上	-11.5072
见到这	-11.5073
你叫甚么名字	-11.5074
扫去	-11.5075
虽大	-11.5078
强自	-11.5079
写道	-11.5081
平地	-11.5081
回报	-11.5082
笼罩	-11.5083
同到	-11.5085
花样	-11.5086
罩在	-11.5088
作响	-11.5088
来向	-11.5091
踏在	-11.5092
一截	-11.5095
也算是	-11.5095
郭靖的手	-11.5096
据说	-11.5096
舍却	-11.5096
你何必	-11.5102
少年人	-11.5104
雪白的	-11.5105
派掌门	-11.5107
忧急	-11.5108
霸道	-11.5108
的绳索	-11.511
势力	-11.511
改口	-11.5113
指使	-11.5114
快出来	-11.512
咱们须得	-11.512
引起	-11.512
无半点	-11.5123
脱出	-11.5123
的小子	-11.5124
这地方	-11.5126
脉搏	-11.5126
有法子	-11.5126
那怎么	-11.5128
扑上去	-11.513
要自己	-11.5131
白纸	-11.5131
勃	-11.5132
一月	-11.5136
得极是	-11.5136
三拳	-11.5137
得罪你	-11.5137
流露出	-11.5141
已瞧出	-11.5143
不听话	-11.5143
一心要	-11.5143
衣饰	-11.5143
这才是	-11.5144
有两个	-11.5147
青石	-11.515
虽快	-11.5154
救活	-11.5155
大对头	-11.5155
了这么久	-11.5157
相距不过	-11.5157
那一位	-11.5161
瞒过	-11.5164
金丝	-11.5164
至少也	-11.5165
农夫	-11.5167
便奔	-11.5167
麻雀	-11.517
但自己	-11.5171
内外	-11.5171
故人	-11.5171
免了	-11.5172
有几人	-11.5173
加快	-11.5173
越快	-11.5173
动怒	-11.5174
一下子	-11.5174
先到	-11.5179
见得	-11.518
大罪	-11.5181
我就是	-11.5186
在背后	-11.5187
长绳	-11.5188
火花	-11.5189
一扫	-11.5192
我见	-11.5192
去救人	-11.5193
送死	-11.5193
凑到	-11.5194
言语之中	-11.5197
大理国的	-11.5199
说错了	-11.5202
三十招	-11.5204
上都	-11.5204
大拇指	-11.5206
流泪	-11.5209
就可惜	-11.5214
长江	-11.5218
的身分	-11.5219
枝干	-11.5219
求生	-11.522
不足以	-11.522
装得	-11.5223
系在	-11.5224
爬到	-11.5225
为重	-11.5226
无名	-11.5229
周师叔	-11.523
身来	-11.5232
见小龙女	-11.5234
坟墓	-11.5234
看了一会	-11.5241
人参	-11.5242
郭靖却	-11.5249
燃	-11.5249
初见	-11.5249
发劲	-11.5253
万难	-11.5255
双膝	-11.5255
隐藏	-11.5256
穿出	-11.5257
右拳	-11.5257
已断	-11.526
不接	-11.526
处大穴	-11.526
的外号	-11.5261
她自己	-11.5261
寄	-11.5264
倒好	-11.5266
令狐冲见他	-11.5268
永不	-11.5273
在梦中	-11.5275
揽	-11.5277
伤在	-11.5279
点燃	-11.5281
莫非是	-11.5282
搏	-11.5282
上冲	-11.5283
巷	-11.5285
的前辈	-11.5285
留下的	-11.5289
已尽	-11.529
杭州	-11.5291
画像	-11.5292
伸手按住	-11.5293
是大理国	-11.5294
手臂上	-11.5295
七道	-11.5297
袖中	-11.5299
怦怦乱跳	-11.5302
一照	-11.5302
段兄	-11.5303
责骂	-11.5306
哇	-11.5306
是天下第一	-11.5308
狗屁	-11.531
他们是	-11.5312
了一眼	-11.5315
归来	-11.5316
难分	-11.5316
踉跄	-11.5319
向黄蓉	-11.5319
翘	-11.532
向乔峰	-11.5321
的传人	-11.5322
只怕她	-11.5323
跛	-11.5325
锦旗	-11.5325
踏步	-11.5326
巅	-11.5326
的肩头	-11.5327
只觉她	-11.5327
憾	-11.5328
说几句话	-11.5329
再好不过	-11.5329
曰	-11.5329
怒目而视	-11.5329
歼	-11.5329
拱	-11.5329
只当	-11.5331
名不虚传	-11.5331
凹	-11.5331
季	-11.5331
心满意足	-11.5331
千军万马	-11.5331
丛不弃	-11.5332
胡作非为	-11.5332
迟钝	-11.5332
崔	-11.5332
三日三夜	-11.5332
盾	-11.5332
于人豪	-11.5332
讳	-11.5332
连人带	-11.5332
熏	-11.5332
标	-11.5332
彻	-11.5332
诉	-11.5332
灿烂	-11.5332
一声清啸	-11.5333
魁梧	-11.5333
柏	-11.5333
神木王鼎	-11.5333
事到临头	-11.5333
放心不下	-11.5333
忍耐不住	-11.5333
鸦	-11.5333
仓	-11.5333
夏胄	-11.5333
梢公	-11.5333
腼腆	-11.5333
桃谷五仙	-11.5333
航	-11.5333
秦伟邦	-11.5333
朝夕	-11.5333
钓	-11.5333
情谊	-11.5333
笑出声来	-11.5333
窥探	-11.5333
化敌为友	-11.5333
烦躁	-11.5333
脑筋	-11.5333
挟制	-11.5333
当今之世	-11.5333
践	-11.5333
陵	-11.5333
侧身避过	-11.5333
殷六叔	-11.5334
祁天彪	-11.5334
史伯威	-11.5334
遁	-11.5334
浓烟	-11.5334
俺	-11.5334
玉磬子	-11.5334
可想而知	-11.5334
跟随其后	-11.5334
棺木	-11.5334
竹筒	-11.5334
铜尸	-11.5334
夫妻俩	-11.5334
窒滞	-11.5334
王真人	-11.5334
南海神尼	-11.5335
嗤的一声轻响	-11.5335
钢锥	-11.5335
嫌隙	-11.5335
考较	-11.5335
是明教	-11.5335
鬓边	-11.5335
混蛋	-11.5335
劝阻	-11.5336
帮规	-11.5336
睡罢	-11.5336
上峰来	-11.5336
窗格	-11.5336
刀鞘	-11.5336
受伤不轻	-11.5336
偶然	-11.5336
什么地方	-11.5336
好功夫	-11.5336
群兽	-11.5336
油布	-11.5337
枯木	-11.5337
玄悲大师	-11.5337
屈服	-11.5337
获胜	-11.5337
双掌相交	-11.5338
足迹	-11.5338
掩面	-11.5338
守护	-11.5339
一瞥之下	-11.5339
四庄主	-11.5339
进洞	-11.534
碰撞	-11.534
的叫声	-11.534
抗敌	-11.534
辱骂	-11.534
白袍	-11.534
搜寻	-11.5341
一进	-11.5342
遭逢	-11.5342
破烂	-11.5343
草原上	-11.5343
庄帮主	-11.5344
抽出长剑	-11.5344
数度	-11.5344
组成	-11.5344
睁开	-11.5344
须眉	-11.5346
少林僧众	-11.5346
来得好快	-11.5346
纵身上前	-11.5347
孙子	-11.5347
怒骂	-11.5347
并骑	-11.5348
君山	-11.5348
药性	-11.5348
亲妹子	-11.5348
师兄妹	-11.5348
清净	-11.5349
脑子	-11.5349
年轻姑娘	-11.5349
云南	-11.5349
慈和	-11.535
脱下	-11.535
第三招	-11.5351
去杀了	-11.5351
拚着	-11.5353
垂泪道	-11.5354
银光	-11.5354
甚是了得	-11.5354
胸间	-11.5354
引路	-11.5355
恶鬼	-11.5356
柱子	-11.5356
神通	-11.5357
百余人	-11.5357
相若	-11.5357
三路	-11.5358
捡起	-11.5358
要胁	-11.5358
垂手	-11.5359
满脸都是	-11.536
瞪视着	-11.5361
等着	-11.5362
随同	-11.5362
一股劲风	-11.5362
强盗	-11.5362
再好也没有了	-11.5363
曲三	-11.5363
是什么意思	-11.5363
叩见	-11.5365
火柱	-11.5365
扬起	-11.5365
行为	-11.5366
真乃	-11.5366
遮掩	-11.5367
发疯	-11.5369
铁和尚	-11.537
见谅	-11.537
我决不	-11.537
大步	-11.5371
最怕	-11.5373
来吃	-11.5373
这根	-11.5373
要问	-11.5373
人士	-11.5373
退了几步	-11.5374
提刀	-11.5374
一身武功	-11.5375
清白	-11.5376
详细	-11.5376
那怪客	-11.5376
臂弯	-11.5376
小妹妹	-11.5376
心脏	-11.5377
众人都是	-11.5378
放在地下	-11.5378
甚重	-11.5378
帮你	-11.5379
做得到	-11.538
一封	-11.538
叫你们	-11.5381
不雅	-11.5382
之侧	-11.5382
说不上来	-11.5383
心中一阵	-11.5383
插着	-11.5383
就在这	-11.5384
第十四	-11.5385
咱们去	-11.5385
惊疑	-11.5386
蓬的一声	-11.5386
黄蓉与郭靖	-11.5386
左手抓住	-11.5387
的父母	-11.5388
一声响	-11.5388
你这样	-11.539
掳去	-11.5395
本相	-11.5396
凝视着他	-11.5397
直指	-11.5398
空明拳	-11.5398
大红	-11.5398
识破	-11.54
不痛	-11.5402
没将	-11.5402
罪名	-11.5404
阴世	-11.5404
别哭	-11.5406
千古	-11.5407
骡车	-11.5408
按着	-11.5408
外伤	-11.5408
他以	-11.5412
刺杀	-11.5414
各出	-11.5414
极其	-11.5418
如意	-11.5418
武功家数	-11.5419
他们都	-11.542
自管	-11.542
吼叫	-11.5422
自以为	-11.5422
扑面	-11.5423
却十分	-11.5429
得片刻	-11.5429
那四人	-11.5432
老四	-11.5432
是嵩山派	-11.5433
掷来	-11.5433
天边	-11.5437
的地步	-11.5437
口里	-11.5439
先得	-11.5439
无耻之徒	-11.544
树梢	-11.544
在华山绝顶	-11.544
的威风	-11.5441
来跟你	-11.5442
完好	-11.5443
怎么知道	-11.5445
既非	-11.5446
之举	-11.5449
得无影无踪	-11.545
一旁	-11.5451
北边	-11.5451
我宁可	-11.5452
比划	-11.5454
一拨	-11.5454
这麽	-11.5455
看来这	-11.5456
通知	-11.5457
好妹子	-11.5457
也是一样	-11.5458
不能让	-11.546
的铁链	-11.5462
块石头	-11.5463
本参	-11.5464
就是这样	-11.5466
无声息	-11.5466
得见	-11.5468
这套剑法	-11.5471
这六	-11.5471
心有	-11.5474
花了	-11.5476
猛攻	-11.5476
嵩山派的	-11.5479
但对	-11.548
但一	-11.5482
甚有	-11.5483
如常	-11.5485
纵出	-11.5486
奔了	-11.5487
的首领	-11.5488
哪里还能	-11.5489
已定	-11.549
相应	-11.5491
两指	-11.5492
快刀	-11.5493
五行	-11.5493
守得	-11.5496
众女弟子	-11.5496
听她说	-11.5498
连着	-11.5499
又多了	-11.55
先一人	-11.5501
当初	-11.5501
击不中	-11.5502
退到	-11.5503
不练	-11.5504
骗他	-11.5504
矛头	-11.5505
一亮	-11.5506
分派	-11.5507
在我身上	-11.5508
三四十	-11.5509
原来那	-11.551
三个字	-11.5511
被点	-11.5512
听由	-11.5515
会见	-11.5518
那有甚么	-11.5518
是何人	-11.552
如要	-11.5521
使个	-11.5524
两碗	-11.5526
原可	-11.5527
堂中	-11.5531
尚能	-11.5534
乱打	-11.5535
踢开	-11.5536
是何等	-11.5536
不再说话	-11.5537
担子	-11.5541
外功	-11.5542
年间	-11.5542
年之前	-11.5543
南边	-11.5545
的家伙	-11.5546
这群	-11.5546
的背心	-11.5546
城里	-11.5549
青色	-11.555
前的	-11.5557
的女人	-11.5557
已全	-11.5559
安排下	-11.5559
暗赞	-11.556
郭靖一怔	-11.5562
要取	-11.5562
倚天	-11.5563
我猜	-11.5567
为了救	-11.557
便没	-11.5571
我会	-11.5574
得脱	-11.5579
以报	-11.5579
掌柜	-11.558
有一件	-11.5582
回过	-11.5584
无处可	-11.5584
得上	-11.5584
还我	-11.5585
没来由的	-11.5587
想去	-11.5588
他们要	-11.5589
说得好	-11.559
一家人	-11.5593
新娘	-11.5593
与其	-11.5593
多么	-11.5594
已无法	-11.5595
疾行	-11.56
何惧	-11.5602
开船	-11.5603
气力	-11.5606
已不在	-11.5606
之罪	-11.5608
在中原	-11.5609
交换	-11.5612
得到了	-11.5613
没入	-11.5615
西南	-11.5616
一发	-11.5616
长安	-11.5617
酒店	-11.5617
身随	-11.5618
对这位	-11.5618
却见他	-11.5618
说得不错	-11.5619
谈笑	-11.562
的内伤	-11.5622
更快	-11.5623
违拗	-11.5624
三处	-11.5625
的确	-11.5626
最好是	-11.563
不等他	-11.5631
个个都	-11.5633
眸	-11.5636
醒了	-11.564
呜咽	-11.564
慈悲为怀	-11.5641
你在哪里	-11.5642
张无忌见她	-11.5644
坦	-11.5644
西北	-11.5645
话未说完	-11.5647
软了	-11.5647
弟子们	-11.5648
之别	-11.5648
咱们也	-11.5648
将段誉	-11.5649
能使	-11.5651
楼下	-11.5653
肝	-11.5655
觉到	-11.5656
上次	-11.5656
还不够	-11.5657
掌势	-11.5658
流传	-11.5659
内室	-11.566
家传	-11.566
恨你	-11.5661
甲板	-11.5662
一直没	-11.5662
这一位	-11.5666
撇	-11.5667
生意	-11.5667
各种	-11.5669
似在	-11.567
失落	-11.5673
风响	-11.5674
味道	-11.5676
身遭	-11.5676
牧	-11.5677
测	-11.5678
书上	-11.5678
笛	-11.5678
吹得	-11.568
套在	-11.568
肆	-11.5681
如云	-11.5681
肺	-11.5681
此仇	-11.5683
当我是	-11.5685
眼角	-11.5685
和气	-11.5688
四僧	-11.5689
我此刻	-11.569
三人都	-11.5691
睡去	-11.5691
迳	-11.5691
姓杨的	-11.5692
我表妹	-11.5693
教徒	-11.5695
而归	-11.5696
她父亲	-11.5698
广场	-11.5698
你身子	-11.5698
放人	-11.5699
未有	-11.5699
来问我	-11.5701
锚	-11.5701
提心吊胆	-11.5701
弧形	-11.5701
链	-11.5701
全真诸子	-11.5701
愁眉苦脸	-11.5701
潘天耕	-11.5701
奶	-11.5701
易师爷	-11.5702
破涕为笑	-11.5702
怜悯	-11.5702
斗转星移	-11.5702
侍卫	-11.5702
枯荣	-11.5702
拂麈	-11.5702
醉仙楼	-11.5702
百夫长	-11.5702
与众不同	-11.5702
只盼能	-11.5702
瞧上一眼	-11.5702
辟	-11.5702
算得是	-11.5702
仇深似海	-11.5702
相顾骇然	-11.5702
乌鸦	-11.5702
垂头丧气	-11.5702
乱刀分尸	-11.5702
蔽	-11.5703
单名一个	-11.5703
讶异	-11.5703
回心转意	-11.5703
羁	-11.5703
长白山	-11.5703
跷	-11.5703
皱纹	-11.5703
脏腑	-11.5703
聪明伶俐	-11.5703
脸如死灰	-11.5703
毡	-11.5703
瓜葛	-11.5703
痰	-11.5703
这么大的	-11.5703
大叫大嚷	-11.5703
秃头老者	-11.5703
嘱	-11.5703
药材	-11.5703
额角	-11.5703
穷凶极恶	-11.5703
纱	-11.5703
咬紧牙关	-11.5703
揍	-11.5703
玉灵道人	-11.5703
王盘山	-11.5703
骄傲	-11.5703
帛	-11.5703
家破人亡	-11.5703
秉	-11.5703
古笃诚	-11.5703
捕捉	-11.5703
四大长老	-11.5704
踢了一脚	-11.5704
呵呵大笑	-11.5704
新郎	-11.5704
吹箫	-11.5704
灰衣僧	-11.5704
黑沉沉的	-11.5704
一声长笑	-11.5704
意下如何	-11.5704
渊博	-11.5704
歹意	-11.5704
检视	-11.5704
何氏夫妇	-11.5704
踱	-11.5704
斜坡	-11.5704
蒙哥	-11.5704
呆了一呆	-11.5704
陈设	-11.5704
鬼头刀	-11.5704
伸出手来	-11.5704
减弱	-11.5705
仰天大笑	-11.5705
啼哭	-11.5705
姬清虚	-11.5705
提高声音	-11.5705
神骏	-11.5705
苦苦思索	-11.5705
乒乒乓乓	-11.5705
一声长啸	-11.5705
天明	-11.5705
通道	-11.5705
宠爱	-11.5706
屏风	-11.5706
彼端	-11.5706
一个苍老的声音	-11.5706
言下之意	-11.5706
挑拨	-11.5706
拜访	-11.5706
渐渐远去	-11.5706
指法	-11.5707
钟谷主	-11.5707
贼汉子	-11.5707
两人在	-11.5707
花朵	-11.5708
跨步	-11.5708
两个女子	-11.5708
拍的一响	-11.5708
只恨	-11.5708
危急之际	-11.5708
紫色	-11.5708
血液	-11.5709
第二日	-11.5709
纵声大笑	-11.5709
落后	-11.5709
施展轻功	-11.571
杏子林中	-11.571
盘膝坐下	-11.571
一声喊	-11.571
插嘴	-11.571
报应	-11.571
爱护	-11.571
一棒	-11.571
长啸	-11.571
羊皮	-11.5711
亲密	-11.5711
拜了下去	-11.5712
领兵	-11.5713
初次	-11.5713
三位高僧	-11.5714
觉远大师	-11.5714
重誓	-11.5714
流了下来	-11.5714
镜子	-11.5715
打他不过	-11.5715
嗯了一声	-11.5715
他老人家的	-11.5716
宋人	-11.5716
这几年来	-11.5717
奇异	-11.5717
伏在地下	-11.5717
玉女	-11.5717
接了过来	-11.5718
青衣	-11.5718
那老仆	-11.5718
颇具	-11.5718
镖局子	-11.5719
所练的	-11.5719
地面	-11.5719
本性	-11.572
四顾	-11.572
喜色	-11.572
四掌	-11.5721
迟了一步	-11.5721
百招	-11.5721
气概	-11.5722
老娘	-11.5722
观战	-11.5722
伸手接住	-11.5723
远远不及	-11.5723
那美妇	-11.5724
我跟他	-11.5724
流转	-11.5724
两根手指	-11.5724
你们都	-11.5725
太平	-11.5726
冲撞	-11.5726
只剩	-11.5726
大感诧异	-11.5726
办事	-11.5726
本门功夫	-11.5727
将开来	-11.5727
转折	-11.5727
悬空寺	-11.5728
实在是	-11.5728
三个月	-11.5729
我们三人	-11.573
交了给	-11.573
废人	-11.573
早料到	-11.573
也似的	-11.5731
出手相助	-11.5732
露面	-11.5732
齐断	-11.5735
走了进来	-11.5735
悬着	-11.5736
名目	-11.5737
老顽童周伯通	-11.5738
搔头	-11.5738
挨打	-11.5738
师傅	-11.5739
十一	-11.5739
的招式	-11.5739
满门	-11.574
揪住	-11.5741
只瞧得	-11.5742
短的	-11.5742
敌招	-11.5744
就像	-11.5745
温和	-11.5745
对方的	-11.5745
倒也不错	-11.5748
齐问	-11.5749
在窗外	-11.5752
究是	-11.5753
两军	-11.5753
生长	-11.5753
熟知	-11.5753
你瞧我	-11.5754
公鸡	-11.5754
四女	-11.5754
我到	-11.5756
还道是	-11.5757
风光	-11.5757
的身手	-11.5757
我派	-11.5758
那般	-11.5758
代他	-11.5758
一出手便	-11.5759
人丛	-11.576
得粉碎	-11.5761
击败	-11.5761
人情	-11.5763
送去	-11.5767
不中用	-11.5769
大魔头	-11.5769
斧头	-11.5769
使他	-11.5771
却如此	-11.5772
幸会	-11.5773
大振	-11.5774
便宜了	-11.5775
被困	-11.5775
逼开	-11.5776
涌上	-11.5777
的人影	-11.5778
来往	-11.578
在客店中	-11.578
在心中	-11.5781
族人	-11.5782
是甚么意思	-11.5782
会面	-11.5785
数十里	-11.5785
郎君	-11.5786
智计	-11.5787
大减	-11.5788
珍珠	-11.5791
无意	-11.5792
别处	-11.5792
医书	-11.5793
其事	-11.5793
雄雕	-11.5795
挡得住	-11.5796
一块岩石	-11.5798
桃花岛的	-11.58
四尺	-11.5803
和阿朱	-11.5805
黑木崖上	-11.5805
多半便是	-11.5805
这女娃娃	-11.5806
这块	-11.5811
不支	-11.5811
半招	-11.5811
推动	-11.5812
所得	-11.5813
大刀	-11.5814
之乐	-11.5815
所受	-11.5817
转身向	-11.5818
第十一	-11.5818
但只	-11.582
在世	-11.5821
迷糊	-11.5826
倒还	-11.5827
硬生生	-11.583
身子一颤	-11.583
然后再	-11.5832
个耳光	-11.5832
抵住	-11.5836
作对	-11.5836
处事	-11.5836
后背	-11.5837
这种人	-11.5841
圣使	-11.5842
有两	-11.5848
又自	-11.5849
救我性命	-11.5849
老夫人	-11.5851
否则我	-11.5855
你不知道	-11.586
须得先	-11.5862
忽又	-11.5862
好几	-11.5863
辱我	-11.5865
我非	-11.5867
却兀自	-11.5869
铁枪庙	-11.587
心中对	-11.5872
夺过	-11.5872
痛哭	-11.5876
听说他	-11.5876
的滋味	-11.5876
衡山城	-11.5877
叫一声	-11.5878
他们说	-11.5878
他明知	-11.5879
第一大帮	-11.588
不高	-11.588
缺口	-11.5884
只把	-11.5885
乱叫	-11.589
数倍	-11.5892
杀她	-11.5893
进招	-11.5894
立定	-11.5895
盒中	-11.5896
化解了	-11.5898
如刀	-11.5898
绕了	-11.59
地步	-11.5908
逃到	-11.5909
我能	-11.5909
你怎知	-11.5909
用手指	-11.591
阁中	-11.5912
大师姊	-11.5914
坐在石上	-11.5914
三丈	-11.5915
的要旨	-11.5916
不许你	-11.5918
横梁	-11.5918
说得上	-11.5918
那小姑娘	-11.5919
已失	-11.5921
令狐冲一怔	-11.5922
五字	-11.5923
割下	-11.5927
自居	-11.5927
击来	-11.5931
拾起地下	-11.5933
我丈夫	-11.5935
的神功	-11.5938
已奔到	-11.5939
听从	-11.594
你且	-11.5946
又到	-11.5949
玩意儿	-11.595
便由	-11.595
江西	-11.5952
墙边	-11.5952
没法	-11.5953
丹房	-11.5953
湖畔	-11.5957
他从	-11.5957
一招之间	-11.5958
刹那间	-11.5959
▁着	-11.5961
定须	-11.5961
下属	-11.5963
呜	-11.5964
不成话	-11.5965
想是他	-11.5967
厅外	-11.5968
剑阵	-11.597
永远不会	-11.5971
抢前	-11.5972
给这	-11.5975
妙法	-11.5976
隐隐约约	-11.5977
数十年的	-11.5977
连使	-11.5984
遗言	-11.5985
求亲	-11.5988
时已	-11.5991
逃了	-11.5992
是故意	-11.5995
无一不	-11.5995
不自禁	-11.5995
猴	-11.5996
如何会	-11.6
身于	-11.6002
值得	-11.6003
大法	-11.6003
撞向	-11.6007
所乘	-11.6008
给师父	-11.601
张无忌心下	-11.6011
群山	-11.6012
见对方	-11.6013
的眼珠	-11.6014
半晌不语	-11.6014
虽未	-11.6017
在水中	-11.6017
在暗中	-11.6019
▁头	-11.6019
着的	-11.602
任帮主	-11.6021
打起	-11.6021
的惨状	-11.6021
他生性	-11.6021
粉碎	-11.6022
霍地站起	-11.6023
蓬	-11.6024
渐渐的	-11.6024
多多	-11.6025
九阳真气	-11.6025
圈转	-11.6027
敲击	-11.6028
当下也不	-11.603
睁大	-11.6032
御厨	-11.6032
这剑法	-11.6034
怎地会	-11.6038
伸右手	-11.6038
哑婆婆	-11.6038
毫不费力	-11.6039
聚在一起	-11.6041
患难	-11.6042
也甚	-11.6043
颂	-11.6048
揪	-11.6049
但终于	-11.6049
看她	-11.605
而非	-11.605
滩	-11.6051
只是要	-11.6052
说了一遍	-11.6053
见性峰	-11.6054
气运	-11.6054
重伤之余	-11.6055
做什么	-11.6055
要跟	-11.6055
剖	-11.6056
那么我	-11.6056
小妖女	-11.6058
竟要	-11.6058
九成	-11.6059
的秘奥	-11.606
斩去	-11.6061
咱们一起	-11.6061
恒	-11.6062
冲向	-11.6064
郭靖见他	-11.6067
漆黑	-11.6069
欺近	-11.607
呼呼呼	-11.607
我的话	-11.6071
已可	-11.6071
骸骨	-11.6072
但见那	-11.6072
亏你	-11.6072
却知	-11.6073
的精妙	-11.6073
已将他	-11.6073
实不	-11.6075
自己人	-11.6075
却并不	-11.6077
自然不会	-11.6077
塌	-11.6078
还真	-11.6079
殷红	-11.6081
了良久	-11.6081
隙	-11.6082
乞	-11.6083
赦	-11.6083
肢	-11.6083
负心薄幸	-11.6083
枉自	-11.6085
迈开大步	-11.6086
笑意	-11.6086
锦缎	-11.6086
尹赵二人	-11.6086
曳	-11.6086
地不怕	-11.6086
施戴子	-11.6086
龙爪手	-11.6087
楞伽经	-11.6087
烹	-11.6087
忘恩负义	-11.6087
心意已决	-11.6087
站立不稳	-11.6087
慈祥	-11.6087
平庸	-11.6087
以一敌	-11.6087
宅	-11.6087
是死是活	-11.6087
鲨	-11.6087
血肉模糊	-11.6087
小杂种	-11.6087
钦仰	-11.6087
敷衍	-11.6087
需	-11.6087
审	-11.6087
强辞夺理	-11.6087
心甘情愿	-11.6087
膻中	-11.6087
置之不理	-11.6087
有何见教	-11.6088
筏	-11.6088
小白脸	-11.6088
刁	-11.6088
催促	-11.6088
一格	-11.6088
拙荆	-11.6088
咱哥儿俩	-11.6088
冲天而起	-11.6088
蒙面人	-11.6088
栏	-11.6088
弯弓搭箭	-11.6088
夺眶而出	-11.6088
直挺挺的	-11.6088
眺望	-11.6088
掩饰	-11.6088
灌木	-11.6088
马副帮主	-11.6088
浪得虚名	-11.6088
领教领教	-11.6088
十天半月	-11.6088
千刀万剐	-11.6088
被封的穴道	-11.6088
黄河四鬼	-11.6088
惨厉	-11.6088
干粮	-11.6089
筋脉	-11.6089
障	-11.6089
羡慕	-11.6089
身材高大	-11.6089
飒然	-11.6089
毫不相干	-11.6089
公主殿下	-11.6089
幸灾乐祸	-11.6089
的份儿	-11.6089
武当两派	-11.6089
召集	-11.6089
之一的	-11.6089
气愤愤的	-11.6089
一片寂静	-11.6089
小娟	-11.6089
防范	-11.6089
昂首	-11.6089
闲谈	-11.6089
白袍客	-11.6089
婢女	-11.6089
疑惑	-11.6089
作揖	-11.6089
惨遭	-11.6089
本因方丈	-11.6089
裘老前辈	-11.609
清晨	-11.609
长眉	-11.609
百余招	-11.609
发射暗器	-11.609
奸徒	-11.609
棘手	-11.609
五脏六腑	-11.609
轻捷	-11.609
姿势	-11.609
搏击	-11.609
松柴	-11.609
一刀砍	-11.609
老太太	-11.609
追踪	-11.609
饨	-11.6091
瞧出破绽	-11.6091
啥	-11.6091
说出口	-11.6091
了不起的人物	-11.6091
在数丈之外	-11.6091
悲苦	-11.6091
看得清楚	-11.6091
古今	-11.6092
转述	-11.6092
兄台	-11.6092
雪地之中	-11.6092
厮守	-11.6093
令狐师兄	-11.6093
这干人	-11.6093
烦恶	-11.6093
冰雪	-11.6093
乖孩子	-11.6093
奇幻	-11.6093
众丐	-11.6094
听他如此说	-11.6094
掷了过去	-11.6094
缘由	-11.6094
第十八	-11.6095
责怪	-11.6095
遇险	-11.6095
每逢	-11.6095
长须鬼	-11.6096
一棵	-11.6096
轿子	-11.6096
烂泥	-11.6097
严厉	-11.6097
无人敢	-11.6098
光滑	-11.6098
大发脾气	-11.6099
游玩	-11.6099
王道长	-11.6099
分辩	-11.6099
退缩	-11.61
梁发	-11.61
精纯	-11.61
要吃	-11.61
婆婆妈妈	-11.61
相护	-11.6101
略加	-11.6101
众官兵	-11.6102
记挂着	-11.6102
双笔	-11.6102
琴箫	-11.6102
头绪	-11.6103
武林高手	-11.6103
呼吸之声	-11.6104
可有多	-11.6104
岳姑娘	-11.6105
店家	-11.6106
伏击	-11.6107
万里迢迢的	-11.6107
信阳	-11.6107
西北角上	-11.6107
独门	-11.6107
玩意	-11.6107
结拜	-11.6108
小心些	-11.611
显露	-11.611
跟着又是	-11.6111
伸手接过	-11.6112
寒意	-11.6112
痛恨	-11.6113
他不是	-11.6113
这点	-11.6113
天不怕	-11.6115
诸女	-11.6115
小道	-11.6116
留情	-11.6116
来对付	-11.6116
砰砰砰	-11.6116
恨极	-11.6117
天大的	-11.6117
对你不起	-11.6117
至宝	-11.6119
实在太过	-11.6119
低头道	-11.612
深奥	-11.6121
饭碗	-11.6121
脚色	-11.6121
在自己脸上	-11.6121
十足	-11.6123
猎人	-11.6123
竟未	-11.6123
拒却	-11.6124
是女子	-11.6125
南来	-11.6125
大嚼	-11.6125
面色	-11.6125
进房来	-11.6126
以往	-11.6128
也该	-11.6129
好戏	-11.6129
第十七	-11.613
也不愿	-11.6132
已然不及	-11.6133
长久	-11.6134
赶着	-11.6136
稻草	-11.6137
损折	-11.6137
邪恶	-11.6138
这世上	-11.6138
为父	-11.6139
回首	-11.6139
跃上马背	-11.6141
和师父	-11.6142
玉壁	-11.6143
纷纷议论	-11.6143
厉害无比	-11.6143
两场	-11.6145
再比	-11.6146
一节	-11.6146
微动	-11.6146
的身世	-11.6147
之尊	-11.6148
伸手往	-11.6151
常自	-11.6153
的老僧	-11.6153
衣带	-11.6154
号角声	-11.6154
中心	-11.6155
她背心	-11.6155
说着站起身来	-11.6159
亏得	-11.6159
气血	-11.616
如火	-11.6161
镇南王府	-11.6161
裹住	-11.6162
直立	-11.6163
怀抱	-11.6167
手一挥	-11.6167
眼力	-11.6169
不稳	-11.6169
的毒药	-11.617
大伙儿都	-11.6171
山腰	-11.6171
我偏要	-11.6171
看过	-11.6172
之义	-11.6173
绿衫	-11.6174
连自己	-11.6177
忽想	-11.6178
枯枝	-11.6178
踏入	-11.6178
红光	-11.6179
迷倒	-11.618
天下的	-11.6181
村中	-11.6182
东海	-11.6185
汉水	-11.6185
真如	-11.6186
受过	-11.6187
在于	-11.6188
一轮	-11.6188
心下大喜	-11.6188
小心在意	-11.6189
那一年	-11.6189
一是	-11.6191
我总是	-11.6193
跟她说	-11.6193
立功	-11.6193
我用	-11.6193
脸上露出	-11.6194
在床上	-11.6194
掌击	-11.6195
全真派武功	-11.6198
我师妹	-11.6201
派中	-11.6202
取解药	-11.6203
影踪不见	-11.6205
无心	-11.6206
娘娘	-11.6208
扣住了	-11.6208
黄药师的	-11.6208
卧室	-11.6209
荡开	-11.6209
看见	-11.6211
当真有	-11.6213
他掌力	-11.6214
路子	-11.6215
我知道你	-11.6217
不至	-11.6217
还记得	-11.6218
快跑	-11.6219
捏住	-11.6219
七名	-11.622
吸了	-11.622
躺下	-11.6223
又是感激	-11.6228
罩住	-11.6229
却比	-11.6229
便再	-11.6232
扬手	-11.6234
第一件	-11.6235
猛觉	-11.6236
杀气	-11.6236
所料	-11.6236
有几分	-11.6238
你们这些	-11.624
替我	-11.6242
保佑	-11.6242
这才明白	-11.6243
虚名	-11.6244
出厅	-11.6244
之望	-11.6245
接住了	-11.6246
去找寻	-11.6248
大拇指一	-11.625
变为	-11.6252
偏又	-11.6252
中秋	-11.6254
若是我	-11.6255
瞧出来	-11.6255
盘中	-11.6256
向来是	-11.6257
让路	-11.6258
左手在	-11.626
说他是	-11.6261
酒喝	-11.6261
十多名	-11.6263
极多	-11.6263
这掌	-11.6263
抛在	-11.6264
的性子	-11.6265
伸到	-11.6266
动手过招	-11.6268
有言	-11.6269
十分厉害	-11.627
侠士	-11.627
绿火	-11.6271
跪在	-11.6273
的和尚	-11.6274
只这么	-11.6275
相扶	-11.6276
中的一招	-11.6278
清风	-11.6279
无声无息	-11.6281
合上	-11.6281
都知	-11.6282
算了	-11.6284
拿出	-11.6284
后来我	-11.6285
的良机	-11.6287
不值	-11.6287
派出	-11.6288
居然能	-11.6289
看他	-11.629
托大	-11.6291
容身	-11.6292
均无	-11.6293
将杨过	-11.6294
眼皮	-11.6295
即将	-11.6298
你怎	-11.6298
我干么	-11.6301
一万	-11.6304
臀上	-11.6304
不由得心中	-11.6304
传过	-11.6305
纤	-11.6308
与周伯通	-11.6309
自去	-11.6309
喀喇喇一声	-11.6309
惊吓	-11.631
四面八方	-11.6311
向北行	-11.6312
那女孩	-11.6317
首级	-11.6317
不惜	-11.6318
在洞中	-11.6318
可恶	-11.6319
一着	-11.632
杨过一怔	-11.6321
耳光	-11.6324
静静	-11.6325
他就	-11.6327
无主	-11.6331
不收	-11.6331
我也不知道	-11.6332
但郭靖	-11.6333
在黑暗中	-11.6334
闭住	-11.6335
出其不意的	-11.6336
自己为	-11.6337
当你是	-11.6338
的声名	-11.6339
瞧着她	-11.6341
高了	-11.6342
但每	-11.6342
二十四	-11.6343
也难以	-11.6344
无此	-11.6347
四人都	-11.6347
万人	-11.6347
可与	-11.6348
灵便	-11.6348
你的性命	-11.6348
见这人	-11.6349
虽不能	-11.635
一只小	-11.6351
黄蓉知道	-11.6354
出全力	-11.6354
九十	-11.6355
被迫	-11.6356
有物	-11.636
棍棒	-11.6362
明教中人	-11.6364
剑伤	-11.6366
他的心意	-11.6366
说话时	-11.6367
帮主之位	-11.6367
不成了	-11.6369
郭靖忙	-11.6369
她胸口	-11.637
相当	-11.637
乐趣	-11.6371
心下好生	-11.6372
刺伤	-11.6372
拍的一	-11.6372
仇家	-11.6377
亲见	-11.6378
炕	-11.6379
十余丈外	-11.6382
刺瞎了	-11.6382
蛇毒	-11.6384
请起	-11.6385
全是为了	-11.6386
几件	-11.6387
男孩	-11.6387
出谷	-11.6389
楚	-11.6391
两丈	-11.6391
走走	-11.6393
我喜欢	-11.6395
的孩儿	-11.6396
三颗	-11.6396
喝一声	-11.6396
只觉一股	-11.6397
收留	-11.6397
天时	-11.6397
胜过了	-11.6398
一日一夜	-11.6399
这么想	-11.6399
杨过心中	-11.64
颊	-11.64
这一击	-11.6403
一登	-11.6403
属于	-11.6404
中原武林	-11.6404
针刺	-11.6407
早将	-11.6409
寻死	-11.641
又给	-11.6412
那是什么	-11.6416
女娃娃	-11.6418
兀	-11.6421
是我杀的	-11.6421
可好	-11.6423
身旁的	-11.6426
一让	-11.6426
就将	-11.6427
悄声	-11.6427
清香	-11.6429
不能说	-11.643
便是要	-11.6431
醒悟	-11.6436
说起来	-11.6436
不言	-11.6438
多人	-11.6438
碟	-11.6439
这小尼姑	-11.6439
武学之士	-11.6439
有愧	-11.644
伤她	-11.6444
极轻	-11.6445
断腿	-11.6445
给了我	-11.6447
一首	-11.6447
整整	-11.6448
连累	-11.6449
得以	-11.645
红袍人	-11.6451
外家	-11.6452
几眼	-11.6452
你虽	-11.6454
姓杨	-11.6454
老翁	-11.6455
将我们	-11.6457
轻描淡写	-11.6458
忍心	-11.6459
是当世	-11.646
进屋去	-11.6461
听不见	-11.6461
遥望	-11.6465
辽人	-11.6467
苏星河道	-11.6467
远来	-11.6471
问得	-11.6473
除非是	-11.6474
想过	-11.6478
苏州	-11.6478
襟	-11.6478
魔教中的	-11.6478
躯	-11.6479
凌	-11.648
算来	-11.648
沸	-11.648
口中却	-11.648
逼着	-11.6482
款	-11.6483
欣	-11.6484
胡虏	-11.6484
鼠	-11.6484
夭	-11.6484
晨	-11.6484
对啦	-11.6485
魄	-11.6485
钵	-11.6485
哇哇	-11.6485
捺	-11.6485
斑斑	-11.6486
淑女剑	-11.6486
宋德方	-11.6486
一年半载	-11.6486
史季强	-11.6486
告诫	-11.6486
砰嘭	-11.6486
为非作歹	-11.6486
窘	-11.6487
督	-11.6487
玉女素心剑法	-11.6487
全真六子	-11.6487
脸露	-11.6487
猜想不透	-11.6487
突如其来	-11.6487
殷勤	-11.6487
转瞬间	-11.6487
骄	-11.6487
严三星	-11.6487
巴巴的	-11.6487
拜了几拜	-11.6487
屋檐	-11.6487
一饮而尽	-11.6487
攀援	-11.6487
黑龙潭	-11.6488
六大门派	-11.6488
枭	-11.6488
艄公	-11.6488
百会穴	-11.6488
江昂	-11.6488
八袋弟子	-11.6488
天涯海角	-11.6488
胁迫	-11.6488
嗣	-11.6488
翻身下马	-11.6488
噗哧一笑	-11.6488
威风凛凛	-11.6488
苏习之	-11.6488
晴	-11.6488
喜出望外	-11.6488
撕成四块	-11.6488
娇羞	-11.6488
动上了手	-11.6488
格格娇笑	-11.6488
札	-11.6488
迷惘	-11.6488
锭	-11.6488
应援	-11.6488
溃	-11.6488
微一迟疑	-11.6488
大金刚拳	-11.6488
瞬息间	-11.6488
脸色微变	-11.6488
咎	-11.6488
阅历	-11.6488
胜之不武	-11.6489
简略说了	-11.6489
激射而出	-11.6489
事已如此	-11.6489
悄没声的	-11.6489
的境界	-11.6489
轧轧	-11.6489
四姝	-11.6489
仲	-11.6489
禄	-11.6489
积蓄	-11.6489
胸腹间	-11.6489
罪该万死	-11.6489
从长计议	-11.6489
愤激	-11.6489
印证	-11.6489
束手待毙	-11.6489
天山六阳掌	-11.649
冲口而出	-11.649
争吵	-11.649
妙龄	-11.649
公孙姑娘	-11.649
柔丝	-11.649
游目四	-11.649
青石板	-11.649
长须道人	-11.649
静候	-11.649
内功深湛	-11.649
纵横江湖	-11.649
逃得性命	-11.649
天资	-11.6491
周遭	-11.6491
搜查	-11.6491
侧身避开	-11.6491
之谊	-11.6491
秀眉微	-11.6491
野果	-11.6492
银轮	-11.6492
丈许之外	-11.6492
别过	-11.6492
金刚指力	-11.6492
万状	-11.6492
沉稳	-11.6492
躲了起来	-11.6492
焦黄	-11.6492
木棚	-11.6493
湖北	-11.6493
精光	-11.6493
第十九	-11.6493
宝宝	-11.6493
过了好一阵	-11.6493
怪责	-11.6493
段王爷	-11.6493
点头答应	-11.6494
隔壁	-11.6494
千户	-11.6494
拦路	-11.6494
寒冰	-11.6494
全真剑法	-11.6494
连绵	-11.6494
弯曲	-11.6495
静虚	-11.6495
觅路	-11.6495
遣人	-11.6495
斗胆	-11.6495
睁着	-11.6495
辣手	-11.6495
臭贼	-11.6495
帽子	-11.6495
精熟	-11.6496
相伴	-11.6496
两人并肩	-11.6496
光降	-11.6496
倒也罢了	-11.6496
瞧得清清楚楚	-11.6497
指甲	-11.6497
摆布	-11.6497
叹气	-11.6497
占便宜	-11.6497
轻轻一推	-11.6498
止步	-11.6498
清亮	-11.6498
微晃	-11.6498
桃花	-11.6498
得要命	-11.6499
循着	-11.6499
外号叫作	-11.6499
没趣	-11.6499
厅口	-11.6499
算计	-11.6499
搭救	-11.6499
拔步	-11.6499
左手一扬	-11.6501
排名	-11.6501
巨木	-11.6502
罢休	-11.6502
左师伯	-11.6503
冲突	-11.6503
到得后来	-11.6503
无异状	-11.6504
蒙古大汗	-11.6505
一捏	-11.6505
远胜于	-11.6506
两人相对	-11.6506
蠢才	-11.6506
东北角上	-11.6507
倾倒	-11.6507
还只	-11.6508
此节	-11.6508
合围	-11.6508
宝石	-11.651
捧着	-11.651
五条	-11.6511
一热	-11.6511
论剑	-11.6511
心服	-11.6513
尊重	-11.6513
相视	-11.6514
笔法	-11.6515
伏地	-11.6516
轻描淡写的	-11.6516
四名弟子	-11.6517
粗重	-11.6517
脸上满是	-11.6518
洪水	-11.6518
喀喇一	-11.6518
两处穴道	-11.6519
臂骨	-11.6519
哪想到	-11.652
得意洋洋的	-11.6523
是少林派的	-11.6525
基本	-11.6525
伸出双手	-11.6525
明师	-11.6526
难愈	-11.6526
料得到	-11.6526
恒山弟子	-11.6526
试探	-11.6527
闻名	-11.6527
瘦长	-11.6527
我不说	-11.6528
一件大事	-11.6529
两片	-11.6529
恩义	-11.653
的大名	-11.6531
实是非同小可	-11.6532
这一声	-11.6533
总算他	-11.6534
破空	-11.6534
云雾	-11.6536
赞成	-11.6537
当他是	-11.6538
千余人	-11.6538
听黄蓉	-11.6539
只会	-11.6539
诸弟子	-11.6539
打法	-11.654
那三个	-11.654
听我的话	-11.6543
奇险	-11.6543
中取出	-11.6544
亲信	-11.6544
明晃晃的	-11.6544
锣鼓	-11.6546
淡黄	-11.6547
到达	-11.6547
引他	-11.6547
箭头	-11.6548
不知好歹	-11.6548
马钰道	-11.6548
我可不能	-11.6551
的旧	-11.6551
运使	-11.6551
摸摸	-11.6552
第十二	-11.6552
之福	-11.6553
坚决	-11.6554
击掌	-11.6554
仍能	-11.6555
兵书	-11.6555
年长	-11.6556
一鞭	-11.6556
可还	-11.6556
一个身穿	-11.6557
善罢	-11.6557
玄难道	-11.6558
你敢	-11.6558
小娃娃	-11.6559
逃生	-11.6559
舍身	-11.656
五招	-11.656
回夺	-11.6561
更无别	-11.6561
耳畔	-11.6562
你说是不是	-11.6564
只道她	-11.6568
挺起	-11.6568
只见前面	-11.6568
去探	-11.6568
钟声	-11.6569
闯出	-11.6569
使了出来	-11.657
湖上	-11.657
制得	-11.6571
的衣服	-11.6572
那店伴	-11.6572
的名声	-11.6573
那也不必	-11.6574
所用的	-11.6574
转而	-11.6576
鲁有脚道	-11.6576
聪明才智	-11.6576
得紧了	-11.6576
这一掷	-11.6577
那有什么	-11.6578
的名号	-11.6579
是汉人	-11.6582
会说	-11.6584
已远	-11.6584
分站	-11.6585
蒙古军中	-11.6586
一个声音	-11.6587
倘若是	-11.6587
一丈	-11.6587
记住了	-11.6588
亦已	-11.6589
收剑	-11.659
带动	-11.6591
起事	-11.6592
指指	-11.6592
却又不敢	-11.6593
来不及了	-11.6593
飘然	-11.6595
注入	-11.6595
骷髅头	-11.6595
与洪七公	-11.6597
向黄药师	-11.6597
不悦	-11.6597
能以	-11.6597
无边	-11.6599
便罢	-11.66
见机	-11.6602
小石子	-11.6603
我佛	-11.6604
虽不及	-11.6605
就走	-11.6606
连发	-11.6607
一个个都	-11.6608
托住	-11.6608
咬着	-11.6609
不叫	-11.6611
却说	-11.6612
马头	-11.6613
天意	-11.6613
要是他	-11.6613
掳	-11.6616
从怀中	-11.6618
各门各派	-11.6618
对己	-11.6619
廿	-11.6619
还招	-11.662
查知	-11.6621
三件事	-11.6622
为了要	-11.6624
透出	-11.6626
摔出	-11.6627
退去	-11.6629
害得我	-11.6629
回来啦	-11.663
十六岁	-11.6631
就算不	-11.6635
出拳	-11.6637
老尼姑	-11.6637
饭吃	-11.6638
布下	-11.664
一坐	-11.664
在身前	-11.664
上崖来	-11.6641
我又没	-11.6642
被欧阳锋	-11.6642
体内的	-11.6642
不作	-11.6644
伤了他	-11.6644
始终不见	-11.6644
人称	-11.6646
也不去	-11.6646
遗下	-11.6647
会过	-11.6647
极目	-11.6649
藏语	-11.6649
这法子	-11.665
说的话	-11.6652
用强	-11.6653
我和他	-11.6656
姓赵	-11.6656
好胜	-11.666
过我	-11.6661
那根	-11.6663
他本想	-11.6664
大作	-11.6664
打斗	-11.6666
天下最	-11.6666
有什么用	-11.6667
射到	-11.6667
惯了的	-11.667
休想	-11.6673
罕见	-11.6674
快步奔	-11.6674
七十二	-11.668
厉害之极	-11.6682
接着道	-11.6684
再到	-11.6685
蛮子	-11.669
红花	-11.6691
平台	-11.6692
刚从	-11.6692
交在	-11.6693
沙通天等	-11.6693
不禁暗暗	-11.6695
你肯	-11.67
包围	-11.6701
要杀他	-11.6702
自幼便	-11.6702
一抛	-11.6702
刚才我	-11.6703
的刀法	-11.6703
说着又	-11.6703
七十	-11.6705
虽高	-11.6705
夺下	-11.6706
奉上	-11.6708
尖刺	-11.6712
不作声	-11.6712
心想他	-11.6713
受此	-11.6714
用兵刃	-11.6716
得报	-11.6717
分胜败	-11.6718
迎上	-11.6718
既能	-11.6719
如玉	-11.6719
这酒	-11.6719
跳上	-11.6719
草地	-11.6721
结成了	-11.6722
手刃	-11.6723
等得	-11.6724
这老者	-11.6727
山路	-11.6728
轻挥	-11.673
只怕是	-11.673
觉得他	-11.673
一扇	-11.6733
一刺	-11.6735
既说	-11.6738
七八名	-11.6738
的剑尖	-11.674
的对答	-11.674
观音	-11.6744
送礼	-11.675
众道	-11.675
旁门	-11.675
治疗	-11.6751
见他们	-11.6752
收藏	-11.6753
重重打了	-11.6755
感诧异	-11.6756
的绝技	-11.676
当他	-11.6762
得很啊	-11.6765
殿后	-11.6766
请安	-11.6766
的剧毒	-11.6767
安静	-11.6768
巨蟒	-11.6773
羊肉	-11.6777
涌身	-11.6779
搂住	-11.678
立时便要	-11.678
是我爹爹	-11.6781
是什么人	-11.6784
郭襄笑道	-11.6789
门后	-11.679
悦	-11.6791
先杀了	-11.6792
亲身	-11.6792
大姑娘	-11.6795
他的话	-11.6796
中兴	-11.6797
止住	-11.6798
出来时	-11.6799
刺得	-11.6801
张嘴	-11.6804
那一个	-11.6805
守城	-11.6806
记住	-11.6808
下肚	-11.6812
密室	-11.6814
给你听	-11.6814
箱子	-11.6817
这手	-11.6817
传讯	-11.682
为首	-11.6823
小贱人	-11.6824
随身	-11.6824
有若	-11.6824
口称	-11.6825
多所	-11.6826
其中有	-11.6826
陪他	-11.6829
的药物	-11.6832
波罗星师兄	-11.6832
为时	-11.6835
脱口	-11.6836
雪白	-11.6836
小觑	-11.6836
白光	-11.6839
却也不敢	-11.6842
大好	-11.6846
不加理会	-11.6848
两个月	-11.6848
跟我说话	-11.6849
退让	-11.685
莫说	-11.6852
于天下	-11.6853
惧怕	-11.6854
成就	-11.6855
无法再	-11.6855
使到	-11.6858
误伤	-11.6858
大白	-11.6858
一己	-11.6861
后世	-11.6862
华筝道	-11.6863
幌	-11.6864
傅	-11.6864
甩出	-11.6864
鬼鬼祟祟	-11.6865
的面貌	-11.6866
有七八	-11.6867
在襄阳	-11.6868
越看越	-11.6871
脱手飞出	-11.6875
便吃	-11.6875
聚在	-11.6875
恶行	-11.6876
半月	-11.6881
相劝	-11.6881
高招	-11.6881
动也不动	-11.6884
艇	-11.6885
奔过去	-11.6886
摊	-11.6887
各人都	-11.6887
隆	-11.6888
轻柔	-11.6888
荤	-11.6892
又多	-11.6893
不多时便	-11.6894
本观	-11.6894
播	-11.6894
殴	-11.6894
想到自己	-11.6896
借势	-11.6897
闩	-11.6897
右手伸出	-11.6897
你不可	-11.6898
蚊	-11.6899
水流	-11.6899
侮	-11.69
不减	-11.69
秀眉	-11.6901
蓦	-11.6901
挪	-11.6901
膏	-11.6901
姜	-11.6902
警	-11.6902
天旋地转	-11.6902
舨	-11.6903
要强好胜	-11.6903
监	-11.6903
舅母	-11.6903
髻	-11.6903
心意相通	-11.6903
大祸临头	-11.6903
辔	-11.6903
九花玉露丸	-11.6903
登峰造极	-11.6903
走来走去	-11.6903
荫	-11.6903
宁死不屈	-11.6903
皓	-11.6903
仁侠	-11.6903
枯柴	-11.6903
拜堂成亲	-11.6903
听在耳中	-11.6904
司马卫	-11.6904
辛国梁	-11.6904
得心应手	-11.6904
若有若无	-11.6904
骑在马上	-11.6904
比划比划	-11.6904
欢声雷动	-11.6904
盘膝而坐	-11.6904
痴痴的	-11.6904
笨拙	-11.6904
祈	-11.6904
杜	-11.6904
泡	-11.6904
伸手入怀	-11.6904
的一声叫	-11.6904
优	-11.6904
心头大震	-11.6904
隐僻	-11.6904
娇嫩	-11.6904
安稳	-11.6904
聆	-11.6904
三尸脑神丹	-11.6905
踩	-11.6905
无言可答	-11.6905
粗浅	-11.6905
半截断剑	-11.6905
高克新	-11.6905
亢	-11.6905
取他性命	-11.6905
拚个你死我活	-11.6905
煎熬	-11.6905
长长叹了口气	-11.6905
狼狈不堪	-11.6905
粱	-11.6905
覆灭	-11.6905
博尔忽	-11.6905
肝胆	-11.6905
茶壶	-11.6905
钢镖	-11.6905
剽悍	-11.6905
茶馆	-11.6905
金龙鞭	-11.6905
草莽	-11.6905
吴长风	-11.6905
穴道被点	-11.6905
乌龟儿子王八蛋	-11.6905
吮吸	-11.6905
啊唷	-11.6905
秦家寨	-11.6905
陆展元	-11.6906
往地下一	-11.6906
扒	-11.6906
哑仆	-11.6906
秀美	-11.6906
继承	-11.6906
翻阅	-11.6906
妙策	-11.6906
呼唤	-11.6906
妥善	-11.6906
格格作响	-11.6906
凝神倾听	-11.6906
何三七	-11.6906
叫什么名字	-11.6906
十八岁	-11.6907
娇柔	-11.6907
杀人灭口	-11.6907
铜轮	-11.6907
峨嵋群弟子	-11.6907
荷	-11.6907
彻骨	-11.6907
冲来	-11.6907
那姓易的	-11.6907
中原豪杰	-11.6907
俊美	-11.6907
捣鬼	-11.6907
总坛	-11.6907
纷争	-11.6907
扭曲	-11.6907
祸胎	-11.6907
故乡	-11.6907
多有得罪	-11.6907
高高举起	-11.6908
亲生女儿	-11.6908
微微颤动	-11.6908
逗留	-11.6908
落下地来	-11.6908
勤练	-11.6908
英雄宴	-11.6908
递了过去	-11.6908
黎明	-11.6908
圈套	-11.6908
这回事	-11.6908
粮食	-11.6909
吹奏	-11.6909
为伍	-11.6909
胸口热血上涌	-11.6909
房舍	-11.6909
守卫	-11.6909
并列	-11.6909
正是求之不得	-11.6909
的一下	-11.691
伏魔	-11.691
虎虎	-11.691
二庄主	-11.691
脚程	-11.691
绣花	-11.691
喜慰	-11.691
黄昏	-11.6911
改投	-11.6911
曲调	-11.6911
秀发	-11.6911
却把	-11.6911
款待	-11.6911
鸡汤	-11.6911
素素	-11.6911
抢上一步	-11.6912
能否	-11.6912
大敌当前	-11.6912
锋兄	-11.6912
莫师伯	-11.6912
门槛	-11.6912
英雄了得	-11.6913
慧风	-11.6913
阴狠	-11.6913
第三十二	-11.6913
蹲	-11.6913
花驴	-11.6913
含意	-11.6914
周师兄	-11.6914
盗贼	-11.6914
木盘	-11.6914
魔教妖人	-11.6914
反对	-11.6914
门闩	-11.6914
严加	-11.6915
酒坛	-11.6915
▁时	-11.6915
新娘子	-11.6915
终须	-11.6915
伸手去接	-11.6916
花瓣	-11.6916
虚假	-11.6916
之利	-11.6916
我知道啦	-11.6916
着实了得	-11.6917
静坐	-11.6917
笔划	-11.6917
树叶	-11.6918
对付得了	-11.6918
人群中	-11.6918
二十年前	-11.6918
吓得魂不附体	-11.6918
翻滚	-11.6918
知悉	-11.6919
缓步走到	-11.6919
两柄长剑	-11.6919
办不到	-11.6919
右手一扬	-11.6919
长期	-11.692
食言	-11.692
对付不了	-11.692
夫妇俩	-11.6921
合并	-11.6921
而落	-11.6921
弟弟	-11.6922
拍的一声响	-11.6922
小凤	-11.6923
峰下	-11.6923
他自幼	-11.6923
啊哈	-11.6923
本该	-11.6923
且住	-11.6924
不到半个时辰	-11.6924
从半空中	-11.6925
鬼怪	-11.6927
共同	-11.6927
相较	-11.6927
是一位	-11.6927
中神通	-11.6928
施救	-11.6928
武功再强	-11.6928
棋子	-11.6929
怕死	-11.6929
蟒蛇	-11.6929
了好一会	-11.6929
广场上	-11.6929
躲在这里	-11.693
可是那	-11.693
一回事	-11.6931
了几遍	-11.6931
刺客	-11.6931
接骨	-11.6932
黄蓉却	-11.6933
好生失望	-11.6934
之畔	-11.6934
刺痛	-11.6935
仪琳师妹	-11.6935
戴着	-11.6935
红肿	-11.6935
乱跳	-11.6935
轻忽	-11.6937
掉头	-11.6937
照在	-11.6937
中午	-11.6937
生着	-11.6937
一条手臂	-11.6938
早知如此	-11.6938
更显得	-11.6939
寻到了	-11.6939
意气	-11.6939
所藏	-11.6939
果子	-11.694
火势	-11.694
守军	-11.694
求求你	-11.694
三十二	-11.694
看不到	-11.6942
齐声欢呼	-11.6942
指引	-11.6942
如雨	-11.6943
星宿派的	-11.6943
一人之力	-11.6944
两大高手	-11.6944
驰出	-11.6945
吃痛	-11.6945
的好汉	-11.6945
保得	-11.6946
而卧	-11.6946
年岁	-11.6946
又是一惊	-11.6947
亲传	-11.6949
第三十六	-11.6949
我可没	-11.695
怎么不	-11.695
日日	-11.6951
若不是你	-11.6951
伸手将	-11.6951
谁也不会	-11.6952
我不会	-11.6953
发挥	-11.6953
阿朱姊姊	-11.6953
之祸	-11.6953
急追	-11.6953
太强	-11.6954
留意	-11.6954
总教	-11.6955
探子	-11.6956
力战	-11.6959
月光下只见	-11.696
她想	-11.696
万事	-11.696
失敬	-11.6961
甚强	-11.6963
一堵	-11.6964
的师弟	-11.6965
一掌打	-11.6965
咱们这就	-11.6967
的道儿	-11.6968
丐帮的帮主	-11.6969
雷震	-11.6969
那魔头	-11.6969
生于	-11.6969
字画	-11.697
安心	-11.697
船舱中	-11.697
大吼	-11.6971
错乱	-11.6972
一百年	-11.6974
盘问	-11.6974
这两句	-11.6976
对待	-11.6976
急响	-11.6977
在胸前	-11.6977
救他性命	-11.6978
此地	-11.698
上京	-11.6981
有些人	-11.6981
过一会	-11.6981
后腰	-11.6984
抓住了他	-11.6984
要瞧瞧	-11.6985
三根	-11.6985
等物	-11.6986
山洪	-11.6986
去抓	-11.6987
叫咱们	-11.6988
一勾	-11.6989
丝毫没	-11.6991
看招	-11.6992
之差	-11.6992
照看	-11.6993
小岛	-11.6993
挨了	-11.6994
一刀杀了	-11.6994
不会的	-11.6995
相反	-11.6996
追随	-11.6997
想不起	-11.6997
各地	-11.7
斗口	-11.7001
铁头	-11.7002
行刺	-11.7003
打造	-11.7004
求救	-11.7005
抬头向	-11.7005
不输于	-11.7008
重重的	-11.7009
一百多	-11.701
缠住了	-11.7011
随风	-11.7013
原由	-11.7013
一股热气	-11.7015
难能	-11.7015
就死	-11.7015
无多	-11.7016
威武	-11.7017
在江南	-11.7018
意外	-11.7019
嵌	-11.7019
祖父	-11.702
排列	-11.702
心中害怕	-11.7022
上树	-11.7022
心中所想	-11.7022
哪里是	-11.7022
每一招	-11.7023
曾与	-11.7024
爱我	-11.7026
转了个	-11.7027
重手	-11.7027
你怕	-11.7028
的头发	-11.7028
他不知	-11.703
砰砰	-11.703
不跟你	-11.7031
发觉了	-11.7033
要紧事	-11.7034
被逼	-11.7037
小叫化	-11.7039
红色的	-11.704
名门	-11.704
袭到	-11.7041
砖头	-11.7041
难为你	-11.7042
一刹那间	-11.7043
向慕容复	-11.7043
国家	-11.7044
转弯	-11.7046
堕了	-11.7047
见此	-11.7048
得蒙	-11.7048
发力	-11.705
不即	-11.7052
枪头	-11.7054
缓缓摇头	-11.7054
也渐渐	-11.7056
潭中	-11.7056
船家	-11.7059
大旗	-11.7061
还须	-11.7064
四只	-11.7066
有人在	-11.7066
打伤了	-11.7067
一口咬	-11.7068
起处	-11.7068
再走	-11.7069
尺来长的	-11.7072
的心情	-11.7073
这小鬼	-11.7075
大病	-11.7076
也须	-11.7076
圣人	-11.7077
九人	-11.7077
数招一	-11.7078
是他的	-11.7078
如花	-11.7079
不屈	-11.7079
间房	-11.708
忘记了	-11.708
日常	-11.7081
你娘	-11.7083
齐声大叫	-11.7084
叽哩咕噜的	-11.7085
齐出	-11.7087
好感	-11.7087
他夫妇	-11.7088
挖了	-11.7089
兵刃相交	-11.7089
名道人	-11.709
分散	-11.7091
高得多	-11.7094
针上	-11.7096
书中	-11.7098
见张无忌	-11.7099
少林派中	-11.7099
大礼	-11.7101
四十岁	-11.7102
地道中	-11.7103
我孩儿	-11.7104
大江	-11.7106
两国	-11.7106
复又	-11.7109
两人一齐	-11.7112
如不	-11.7116
纵使	-11.7116
纷飞	-11.7117
青光	-11.7117
倘若有人	-11.7118
饶他	-11.7119
啊啊	-11.7119
撞到了	-11.7119
也有些	-11.7122
未可知	-11.7122
荒谷	-11.7124
没有啊	-11.7125
全在	-11.7125
掏出	-11.7127
胡涂了	-11.7127
是契丹	-11.7127
那口	-11.7131
打了他	-11.7131
杀死了	-11.7132
跌出	-11.7133
想法	-11.7133
和林平之	-11.7133
铁圈	-11.7135
在临安	-11.7135
抓来	-11.7136
黄蓉微微一笑	-11.7137
那时你	-11.7137
不守	-11.7139
你胆敢	-11.714
僻	-11.714
飞过	-11.714
但既	-11.7141
屏息	-11.7142
更多	-11.7143
胡青牛道	-11.7143
给你吃	-11.7144
显出	-11.7144
快逃	-11.7145
有无	-11.7145
竟把	-11.715
传给了	-11.715
志在	-11.7151
懂了	-11.7151
再者	-11.7151
他便是	-11.7152
之数	-11.7154
不能动弹	-11.7154
清楚了	-11.7155
既要	-11.7156
了几步	-11.7158
泄漏了	-11.716
别无	-11.7161
群相	-11.7161
孙三	-11.7161
遮住了	-11.7162
剑头	-11.7163
敌方	-11.7163
一挣	-11.7166
为首的	-11.7167
死之后	-11.7167
平和	-11.7167
伤敌	-11.7172
瞧清楚	-11.7175
你两个	-11.7177
她手臂	-11.7178
阴寒	-11.7178
写的是	-11.718
不倒	-11.7181
弩	-11.7181
包含	-11.7183
好几个	-11.7184
斜刺	-11.7184
杨逍等	-11.7186
不报	-11.7188
离了	-11.719
再强	-11.719
好厉害	-11.7191
黄马	-11.7191
邓百川道	-11.7192
过份	-11.7195
十分欢喜	-11.7195
掩住	-11.72
只说了	-11.7203
北斗	-11.7203
辨认	-11.7205
我姊夫	-11.7206
去求	-11.7207
倒下	-11.7208
扑来	-11.7208
回旋	-11.7208
神教	-11.7208
所受的	-11.7209
也早	-11.7215
目中	-11.7221
弄死	-11.7222
追上了	-11.7223
屋里	-11.7226
我瞧瞧你	-11.7227
我只是	-11.723
小气	-11.723
我正要	-11.7231
片刻间已	-11.7231
反激	-11.7234
打得他	-11.7234
鞍上	-11.7234
失传	-11.7235
诵	-11.7235
的动静	-11.7235
阿朱笑道	-11.7236
的寒毒	-11.7239
入骨	-11.7239
不逾	-11.7239
低低	-11.7241
我要你	-11.7242
数千人	-11.7242
在身旁	-11.7245
余婆	-11.7246
奇人	-11.7248
抱着她	-11.7249
公平	-11.7249
急得	-11.7251
一滴	-11.7251
不要我	-11.7253
不比	-11.7256
西去	-11.7258
做官	-11.7259
灵活	-11.7259
中土明教	-11.7262
都死了	-11.7262
劈出	-11.7264
拍到	-11.7264
矮胖	-11.7264
郭靖知道	-11.7267
是决计不	-11.7267
乘他	-11.7268
助她	-11.7268
封信	-11.727
心下暗暗	-11.727
的消息	-11.7272
要是你	-11.7275
捉住	-11.7276
拿他	-11.7277
场比试	-11.728
为天下	-11.7282
一趟	-11.7285
的图形	-11.7287
带上	-11.7287
我给	-11.7287
没有死	-11.7288
目不转睛的	-11.7292
木然	-11.7292
学武功	-11.7294
他不住	-11.7295
却以	-11.7297
第十三	-11.7305
再高	-11.7305
窃	-11.7306
我夫妇	-11.7307
放松	-11.7307
伏着	-11.7309
菱	-11.7312
无从	-11.7313
撞见	-11.7313
牛皮	-11.7314
到今日	-11.7315
双手合十	-11.7315
不美	-11.7315
句句	-11.7318
的部属	-11.7318
软软的	-11.7321
不还手	-11.7322
洪水旗	-11.7322
已非	-11.7323
在寺中	-11.7324
认了	-11.7325
你胡说八道	-11.7326
武功已	-11.7327
猜中	-11.7327
抓住她	-11.7328
的徒儿	-11.7329
这头	-11.7331
用剑	-11.7331
又想到	-11.7332
祖传	-11.7332
左胁	-11.7333
哟	-11.7333
疗	-11.7333
的语气	-11.7333
求之不得	-11.7334
幕	-11.7334
诏	-11.7334
顽童	-11.7334
点中了穴道	-11.7335
搂在怀里	-11.7335
屎	-11.7336
执着	-11.7336
员	-11.7336
命令	-11.7336
天翻地覆	-11.7337
唾	-11.7337
首席	-11.7337
厌憎	-11.7337
便跟	-11.7337
蛤	-11.7337
大权	-11.7337
清晰	-11.7337
北极星位	-11.7337
强得多	-11.7337
戈	-11.7338
屠戮	-11.7338
竹签	-11.7338
滚来滚去	-11.7338
檐	-11.7338
胶	-11.7338
豁达	-11.7338
狐狸	-11.7338
挖掘	-11.7338
面红耳赤	-11.7338
嘈杂	-11.7338
难说得很	-11.7338
奚长老	-11.7338
峻	-11.7338
韩山童	-11.7338
蚂蚁	-11.7338
遥遥望见	-11.7338
命不久长	-11.7338
达摩祖师	-11.7338
元帅	-11.7338
靴	-11.7338
趁	-11.7338
晚饭	-11.7338
尸横就地	-11.7338
蛮不讲理	-11.7338
巢	-11.7339
琴弦	-11.7339
喜不自胜	-11.7339
驯	-11.7339
劈空掌	-11.7339
籍	-11.7339
睡梦之中	-11.7339
头也不回	-11.7339
伞	-11.7339
奋勇	-11.7339
纠葛	-11.7339
丁大全	-11.7339
个窟窿	-11.7339
狭窄	-11.7339
心惊胆战	-11.7339
大仁大义	-11.7339
史登达	-11.7339
髯	-11.7339
僻静	-11.7339
窖	-11.7339
跌跌撞撞	-11.7339
穆贵妃	-11.7339
万念俱灰	-11.7339
洋	-11.7339
咯咯	-11.7339
恶贯满盈	-11.7339
恩将仇报	-11.7339
荷荷	-11.7339
狄修	-11.7339
咕咕	-11.7339
掌旗使	-11.7339
整日价	-11.7339
怦然心动	-11.7339
手按剑柄	-11.7339
招了招手	-11.7339
耽误	-11.7339
手下容情	-11.7339
枣核	-11.7339
磁	-11.734
钹	-11.734
填膺	-11.734
异种真气	-11.734
眼睛瞎了	-11.734
名满天下	-11.734
梦郎	-11.734
秽	-11.734
无名小卒	-11.734
玲	-11.734
游驹	-11.734
谁胜谁败	-11.734
铐镣	-11.734
欧阳伯伯	-11.734
王家骏	-11.734
千人队	-11.734
木华黎	-11.734
抿嘴笑	-11.734
大声欢呼	-11.734
巡查	-11.734
追赶不上	-11.734
结盟	-11.734
也是枉然	-11.734
哩	-11.734
嘻笑	-11.734
九尾灵狐	-11.7341
念诵	-11.7341
粽子	-11.7341
溺	-11.7341
洪人雄	-11.7341
莫测	-11.7341
撕下衣襟	-11.7341
蓬莱派	-11.7341
寡妇	-11.7341
岳武穆	-11.7341
山谷鸣响	-11.7341
人事不知	-11.7341
腥臭	-11.7341
做哥哥的	-11.7341
丘真人	-11.7341
依样葫芦	-11.7341
您老人家	-11.7341
退开两步	-11.7341
约束	-11.7341
寇	-11.7341
蓝风凰	-11.7341
仙姑	-11.7341
说来惭愧	-11.7341
全身发颤	-11.7342
平等王	-11.7342
一瞬间	-11.7342
长剑出鞘	-11.7342
比赛	-11.7342
绣花针	-11.7342
小茗	-11.7342
恭候	-11.7342
走上两步	-11.7342
棉被	-11.7343
了一些	-11.7343
更无怀疑	-11.7343
抵敌不住	-11.7343
梅师姊	-11.7343
心头一凛	-11.7343
娇美	-11.7343
寺院	-11.7343
再斗下去	-11.7343
石级	-11.7344
册子	-11.7344
瘦削	-11.7344
借宿	-11.7344
内功深厚	-11.7344
裹伤	-11.7344
玉女剑法	-11.7344
烈火旗	-11.7344
宰割	-11.7344
赵师兄	-11.7344
仇恨	-11.7345
银鞭	-11.7345
荤腥	-11.7345
虎爪	-11.7345
制止	-11.7345
医理	-11.7345
你不能	-11.7346
黑牢	-11.7346
双掌齐出	-11.7346
接续	-11.7346
木桨	-11.7346
船板	-11.7346
摔了出去	-11.7346
交锋	-11.7346
这条性命	-11.7346
登时省悟	-11.7346
英名	-11.7347
肉球人	-11.7347
姓林的	-11.7347
大声吆喝	-11.7348
混在一起	-11.7348
脸上现出	-11.7348
擅长	-11.7348
抄起	-11.7348
苦恼	-11.7348
这样一来	-11.7349
举杯	-11.7349
祠堂	-11.7349
声惨呼	-11.7349
诸长老	-11.7349
看了一眼	-11.7349
快速	-11.735
岳师兄	-11.735
迷药	-11.735
燕子	-11.7351
转告	-11.7351
总管	-11.7351
他的武功	-11.7351
淡然	-11.7351
迟早	-11.7351
黄蓉心中	-11.7351
杨兄	-11.7352
靠近	-11.7352
阿离	-11.7353
武功之强	-11.7354
吸血	-11.7354
逆转	-11.7354
定静	-11.7354
所铸	-11.7354
清修	-11.7354
造反	-11.7355
乱闯	-11.7355
臭和尚	-11.7355
凝重	-11.7356
既不肯	-11.7356
咱两个	-11.7357
临死	-11.7357
武功最强	-11.7357
若不是他	-11.7358
真凶	-11.7358
眉间	-11.7359
苍生	-11.7359
门人弟子	-11.7359
少阳	-11.736
大海之中	-11.7361
问到	-11.7362
又能	-11.7363
右手一挥	-11.7363
之高	-11.7363
敬酒	-11.7363
陈七	-11.7364
枪法	-11.7364
受制	-11.7364
众位兄弟	-11.7364
纵身过去	-11.7364
这晚	-11.7365
长短	-11.7365
真假	-11.7366
问个明白	-11.7366
语意	-11.7367
也在	-11.7367
全失	-11.7368
斗在一起	-11.7369
上跃	-11.7369
内功修为	-11.7372
瞥眼	-11.7372
再提	-11.7373
一用	-11.7373
震开	-11.7373
亲亲	-11.7374
激射	-11.7374
个大洞	-11.7374
一串	-11.7375
痛骂	-11.7375
高呼	-11.7376
有力	-11.7376
要诀	-11.7377
依你	-11.7377
古怪之极	-11.7378
仪琳小师妹	-11.7379
一通	-11.7379
一个耳光	-11.738
铁蛇	-11.738
闻声	-11.7381
到底如何	-11.7382
庭中	-11.7382
的口音	-11.7382
只露出	-11.7383
又是伤心	-11.7383
衣裳	-11.7383
更加厉害	-11.7384
扑地	-11.7384
厉害得紧	-11.7385
但转念又想	-11.7385
喜乐	-11.7386
此法	-11.7386
南行	-11.7386
但盼	-11.7386
有备	-11.739
土地	-11.739
竟致	-11.739
咬牙切齿	-11.7391
瞧他们	-11.7393
言相劝	-11.7394
的形貌	-11.7394
假话	-11.7395
应当	-11.7396
这四个字	-11.7396
不论是谁	-11.7397
本门武功	-11.7398
之父	-11.7399
一百个	-11.7399
他才	-11.74
祸患	-11.74
暗喜	-11.7401
狗子	-11.7401
无义	-11.7402
皮囊	-11.7402
相攻	-11.7402
三师哥	-11.7403
善于	-11.7403
咬得	-11.7403
卷住了	-11.7404
越来越响	-11.7405
三长老	-11.7405
在这世上	-11.7405
土山	-11.7406
算盘	-11.7406
识见	-11.7408
这一步	-11.7408
到桃花岛	-11.7409
以之	-11.7409
有种的	-11.7409
跌得	-11.741
武功上	-11.741
谁叫你	-11.741
何故	-11.741
到外面	-11.7411
抢起	-11.7411
只看得	-11.7411
那酒保	-11.7412
拖着	-11.7413
这等情景	-11.7413
秘要	-11.7414
通向	-11.7415
点着	-11.7415
崖下	-11.7416
忽起	-11.7416
便死	-11.7417
话题	-11.7417
杨过心道	-11.7417
反掌	-11.7417
他手上	-11.7418
闪出	-11.7418
这一战	-11.7418
我永远	-11.742
他是在	-11.7422
连败	-11.7422
在自己身上	-11.7424
分了	-11.7424
向郭靖道	-11.7425
上风	-11.7426
保重	-11.7427
特来	-11.7427
干吗	-11.7428
跳起	-11.7429
丐帮中人	-11.743
这一腿	-11.743
多久	-11.7431
发令	-11.7431
直响	-11.7431
雪地里	-11.7432
得出奇	-11.7432
语音中	-11.7433
怎地又	-11.7433
改装	-11.7433
这女孩儿	-11.7434
跟着他	-11.7434
照得	-11.7436
捉摸	-11.7436
进发	-11.7438
和杨过	-11.7438
硬接	-11.7439
不用怕	-11.744
破口	-11.7441
挫折	-11.7442
自然要	-11.7442
喝止	-11.7448
却又是	-11.7448
也不许	-11.7449
对你说	-11.745
甚么事都	-11.745
到天明	-11.745
此经	-11.7452
又或是	-11.7453
又高	-11.7454
出世	-11.7454
天幸	-11.7454
走下	-11.7456
年少	-11.7456
不周	-11.7457
已不及	-11.7458
唯一	-11.7458
语气中	-11.7459
彭连虎道	-11.746
豁	-11.7463
终生	-11.7463
希奇古怪的	-11.7465
一个叫	-11.7467
丝丝	-11.7468
只见地下	-11.7468
退路	-11.7469
囊中	-11.747
瞧出了	-11.747
上船来	-11.7472
一小半	-11.7473
那剑	-11.7477
斗剑	-11.7477
向前急	-11.7478
这五	-11.748
惊得	-11.7481
喝干了	-11.7482
神剑	-11.7482
北门	-11.7482
所习	-11.7482
打成	-11.7483
这魔头	-11.7485
大师伯	-11.7485
她身后	-11.7485
礼法	-11.7486
倒也不是	-11.7487
大名鼎鼎的	-11.7487
躲开	-11.7488
送我	-11.7489
小舍	-11.7489
的拳法	-11.7492
骑在	-11.7493
跟谁	-11.7494
极长	-11.7498
瞎说	-11.7499
两张	-11.7499
屁股上	-11.75
不出去	-11.7502
便叫	-11.7503
要是给	-11.7503
重回	-11.7507
但张无忌	-11.7507
略略	-11.7507
站到	-11.7509
使动	-11.751
那化子	-11.7512
我大哥	-11.7513
朝天	-11.7518
挺剑向	-11.7518
的姿式	-11.752
难道不是	-11.7521
恭喜你	-11.7522
真的要	-11.7522
试了	-11.7524
内家	-11.7527
处理	-11.7527
湖南	-11.7528
意在	-11.7528
射中	-11.7529
的神态	-11.7529
个明白	-11.7531
不敢说	-11.7531
兵卒	-11.7531
愕然道	-11.7538
被郭靖	-11.754
也到了	-11.7541
一低头	-11.7541
武人	-11.7542
无一人	-11.7546
有的说	-11.7546
瞧瞧去	-11.7549
却见她	-11.755
低声说道	-11.7551
却也不禁	-11.7553
清规戒律	-11.7553
别走	-11.7553
他后颈	-11.7555
正气	-11.7555
躬身向	-11.7556
姓甚么	-11.7556
千万不能	-11.7557
见礼	-11.756
若肯	-11.7564
之争	-11.7566
再度	-11.7566
的痕迹	-11.7566
得自	-11.7568
这矮子	-11.7572
拜会	-11.7573
单掌	-11.7576
当作了	-11.7578
要事	-11.758
你跟我说	-11.758
活泼	-11.758
不正	-11.7581
容情	-11.7583
激起	-11.7584
各路英雄	-11.7584
恼了	-11.7585
亲来	-11.7585
先是	-11.7586
只因为	-11.7588
的匕首	-11.7591
实则是	-11.7594
幼女	-11.7595
复原	-11.7598
想出来的	-11.7598
她丈夫	-11.7599
城内	-11.7599
五怪	-11.7599
刀尖	-11.7603
了一番	-11.7603
白马	-11.7603
心中不禁	-11.7604
平手	-11.7605
路过	-11.7605
的苦头	-11.7605
计算	-11.7606
花厅	-11.7606
一凉	-11.7608
布袋中	-11.7614
捧起	-11.7616
腾腾	-11.7618
藏僧	-11.7619
的余地	-11.7619
这马	-11.762
那两名	-11.762
足足	-11.7623
报道	-11.7626
水底	-11.7626
伸指在	-11.7627
大官	-11.7627
星宿	-11.7627
要走	-11.7629
生日	-11.763
不虚	-11.763
就该	-11.7631
五霸冈上	-11.7634
和慕容复	-11.7638
却总是	-11.7638
就地	-11.7638
有这等事	-11.7642
费心	-11.7642
令狐冲哈哈大笑	-11.7644
虐	-11.7644
其实他	-11.7645
那道人道	-11.7645
光大	-11.7646
见母亲	-11.7647
一干人	-11.7647
好快	-11.7648
处的	-11.765
臭叫化	-11.7651
了大半个时辰	-11.7651
冒出	-11.7651
其名	-11.7652
就把	-11.7653
见笑	-11.7654
大屋	-11.7654
猛见	-11.7655
非小	-11.7656
受内伤	-11.7657
厨	-11.7659
布满	-11.766
你问	-11.7661
下首	-11.7661
几千	-11.7662
也很	-11.7664
映照	-11.7669
进得	-11.7669
长窗	-11.7671
一把火	-11.7671
那么咱们	-11.7673
一桌	-11.7673
带他	-11.7674
始终没有	-11.7676
我只好	-11.7677
受尽	-11.7682
互击	-11.7683
取出来	-11.7686
身躯	-11.7688
极有	-11.7688
刀枪	-11.7689
折断了	-11.7689
说了几句话	-11.769
大发	-11.7691
这便是	-11.7691
在道旁	-11.7692
谁又	-11.7692
提出	-11.7694
十七	-11.7695
饶是他	-11.7698
未必就	-11.7699
四块	-11.7701
才知他	-11.7702
从人	-11.7705
只布袋	-11.7706
想做	-11.7707
练到了	-11.7709
过了一阵	-11.771
原有	-11.771
偏要	-11.7712
放上	-11.7713
斜眼向	-11.7713
从所未有	-11.7714
认了出来	-11.7714
批人	-11.7716
一抹	-11.7717
刺中了	-11.7718
里去	-11.7718
却甚	-11.7721
打断了	-11.7721
加强	-11.7725
深自	-11.7725
的内劲	-11.7725
众人见他	-11.7725
是哪一	-11.7726
去得	-11.7727
明珠	-11.7728
帕	-11.773
听杨过	-11.773
这正是	-11.7731
园	-11.7732
也有人	-11.7732
养的	-11.7734
加入	-11.7736
也想不出	-11.7737
轿中	-11.7737
扯下	-11.7738
掩上	-11.7739
有一日	-11.7741
到傍晚	-11.7743
一名汉子	-11.7744
不存	-11.7744
毛骨悚然	-11.7745
罕	-11.7747
辽	-11.7748
高山	-11.775
基	-11.7751
求道	-11.7752
活死人墓	-11.7752
一声冷笑	-11.7753
草原	-11.7754
自不会	-11.7755
曾和	-11.7756
无丝毫	-11.7759
越听越	-11.7759
不断的	-11.7761
帐房	-11.7762
的精要	-11.7763
八个字	-11.7763
但心中	-11.7764
下台	-11.7764
姊	-11.7765
黄蓉心道	-11.7765
胡言	-11.7766
大醉	-11.7766
天鹰教的	-11.7767
的大恩	-11.7768
天真	-11.7768
聊	-11.7769
下得	-11.7769
充满着	-11.7773
也不须	-11.7773
止血	-11.7774
狼牙	-11.7774
右颊	-11.7774
说个	-11.7777
鳄	-11.7778
扑出	-11.7778
一别	-11.7779
微觉	-11.7779
不怕死	-11.778
张无忌听到	-11.7781
能胜	-11.7782
涌起	-11.7783
三刀	-11.7783
纠	-11.7785
届	-11.7785
却也已	-11.7786
册	-11.7786
无功	-11.7787
帘	-11.7787
那时再	-11.7787
枢	-11.7788
处心积虑	-11.7788
此生	-11.7788
憎	-11.7789
勉	-11.7789
研	-11.7789
锄	-11.779
一掌击	-11.779
柜	-11.779
这一点	-11.779
脆	-11.7791
辽帝	-11.7791
在牛家村	-11.7791
翔	-11.7792
禽	-11.7792
凶多吉少	-11.7792
热泪盈眶	-11.7792
殷无福	-11.7792
闻所未闻	-11.7792
崆峒五老	-11.7792
拈	-11.7792
无能为力	-11.7792
乙	-11.7792
白眉鹰王	-11.7792
一声不响	-11.7792
众所周知	-11.7792
足智多谋	-11.7792
哈大霸	-11.7792
从怀中摸出	-11.7793
何尝	-11.7793
借力打力	-11.7793
还剑入鞘	-11.7793
嫣然	-11.7793
难决	-11.7793
简陋	-11.7793
忏悔	-11.7793
真实功夫	-11.7793
漆黑一团	-11.7793
神出鬼没	-11.7793
大喜过望	-11.7793
黄裳	-11.7793
桑	-11.7793
殷无禄	-11.7793
闪闪发光	-11.7793
胃	-11.7793
王仲强	-11.7793
日思夜想	-11.7793
痴心妄想	-11.7793
头晕眼花	-11.7793
心神不定	-11.7793
大胜关	-11.7793
呆在当地	-11.7793
林远图	-11.7793
七十二门绝技	-11.7793
薄薄的	-11.7794
岗	-11.7794
叨	-11.7794
敏捷	-11.7794
同气连枝	-11.7794
掉下泪来	-11.7794
滨	-11.7794
甘拜下风	-11.7794
左支右	-11.7794
吞下	-11.7794
装神弄鬼	-11.7794
齐声呐喊	-11.7794
彭寨主	-11.7794
沟	-11.7794
咬了一口	-11.7794
音律	-11.7794
漠北	-11.7794
侧过了头	-11.7794
噫	-11.7794
动过手	-11.7794
刘贤弟	-11.7794
寂然无声	-11.7794
装腔作势	-11.7794
王家驹	-11.7794
敕封	-11.7794
杨再兴	-11.7794
碧烟	-11.7794
神威凛凛	-11.7794
凌厉之极	-11.7794
常言道得好	-11.7795
乔福	-11.7795
干脆	-11.7795
一笔勾销	-11.7795
只守不攻	-11.7795
小妞儿	-11.7795
天山折梅手	-11.7795
棉花	-11.7795
各不相同	-11.7795
师伯叔	-11.7795
匀	-11.7795
斩钉截铁	-11.7795
杨大嫂	-11.7795
紫衫	-11.7795
陆续	-11.7795
有道高僧	-11.7795
担保	-11.7795
铁铲	-11.7795
可喜可贺	-11.7795
陆二娘	-11.7795
塘	-11.7795
还未回答	-11.7795
空闻方丈	-11.7796
青蛙	-11.7796
剑湖宫	-11.7796
北冥真气	-11.7796
还敢	-11.7796
英豪	-11.7796
皮肤	-11.7796
有话跟你说	-11.7796
男装	-11.7796
粗豪	-11.7796
锐利	-11.7796
新婚	-11.7796
卫护	-11.7796
闭上眼睛	-11.7796
温软	-11.7796
的问话	-11.7796
雷火弹	-11.7796
再也支持不住	-11.7796
吓得呆了	-11.7796
拦腰	-11.7796
放肆	-11.7796
灵效	-11.7796
袖箭	-11.7797
令郎	-11.7797
汗珠	-11.7797
急促	-11.7797
低头不语	-11.7797
宽慰	-11.7797
疗毒	-11.7797
拍了拍	-11.7797
卫壁	-11.7797
武艺高强	-11.7797
大为诧异	-11.7798
惧色	-11.7798
分说	-11.7798
蚕儿	-11.7798
三十六洞	-11.7798
坏蛋	-11.7798
胸怀	-11.7799
哪料到	-11.7799
余裕	-11.7799
不住倒退	-11.7799
奔波	-11.7799
拳术	-11.7799
落魄	-11.7799
呀的一声	-11.7799
绿衫弟子	-11.78
西征	-11.78
叩头	-11.78
降龙	-11.78
不明所以	-11.78
按住了	-11.78
张十五	-11.78
七八丈	-11.78
毒蛛	-11.78
第三十五	-11.7801
单独	-11.7801
惊险	-11.7801
居室	-11.7801
屈膝	-11.7801
六侠	-11.7801
驱毒	-11.7801
遗物	-11.7801
观赏	-11.7801
轻功了得	-11.7802
轮流	-11.7802
少林三僧	-11.7802
慧真	-11.7802
央求	-11.7802
茶碗	-11.7802
整日	-11.7802
诛灭	-11.7802
侧目	-11.7803
追究	-11.7803
恨恨	-11.7803
向盈盈	-11.7803
华山一派	-11.7803
催动	-11.7803
船尾	-11.7803
贵姓	-11.7803
释放	-11.7804
没了主意	-11.7804
粗布	-11.7804
瞧得明白	-11.7805
白猿	-11.7805
众人一齐	-11.7805
路程	-11.7805
闭眼	-11.7805
进袭	-11.7805
岳母	-11.7805
眼波	-11.7806
挥洒	-11.7806
生恐	-11.7806
何止	-11.7806
七星	-11.7806
仇敌	-11.7807
谢三哥	-11.7807
说起过	-11.7807
解围	-11.7808
深浅	-11.7808
风老前辈	-11.7808
牧人	-11.7809
是么	-11.7809
破裂	-11.7809
两粒	-11.7809
当的一声响	-11.781
过得片刻	-11.7811
喝茶	-11.7811
烈酒	-11.7811
膝盖	-11.7811
想个	-11.7812
呆呆的望着	-11.7812
众军	-11.7813
段大哥	-11.7813
不见物	-11.7813
翠山	-11.7814
圆睁	-11.7814
微微一怔	-11.7815
蒙古鞑子	-11.7815
直到此刻	-11.7815
烛光下	-11.7815
四壁	-11.7815
到那里去	-11.7815
曲大哥	-11.7816
草药	-11.7816
西毒欧阳锋	-11.7817
老尼	-11.7817
室门	-11.7818
说了这句话	-11.7818
数合	-11.7818
挂念着	-11.7819
有骨气	-11.782
长袖	-11.782
碍着	-11.782
不见有人	-11.782
浑身	-11.782
才有	-11.7821
味儿	-11.7821
杖法	-11.7821
女孩儿	-11.7821
身子一	-11.7821
吓得魂飞魄散	-11.7823
遭难	-11.7823
瞧我不起	-11.7824
美意	-11.7825
刀背	-11.7825
说这些	-11.7825
极易	-11.7826
张无忌等	-11.7828
信步	-11.7828
尊长	-11.7829
众师弟	-11.783
了三分	-11.783
具尸首	-11.783
两排	-11.7831
回府	-11.7831
皮袋	-11.7832
须发	-11.7832
但随即想起	-11.7832
目下	-11.7833
连响	-11.7834
大违	-11.7834
为什么不	-11.7835
越大	-11.7835
回音	-11.7837
越加	-11.7837
虽说是	-11.7839
她自幼	-11.7839
之机	-11.784
接招	-11.784
东行	-11.7841
没有听见	-11.7842
左手伸出	-11.7842
有半分	-11.7842
心脉	-11.7842
和阿紫	-11.7842
你在这儿	-11.7842
悟到	-11.7843
火石	-11.7844
越来越快	-11.7844
天鸣	-11.7845
之恩	-11.7845
臭气	-11.7845
天权	-11.7846
五色	-11.7846
上的功夫	-11.7846
汝阳王府	-11.7847
驰马	-11.7847
药粉	-11.7848
捧了	-11.7849
齐到	-11.7849
怪事	-11.785
陡地	-11.7851
小娃儿	-11.7851
不禁一怔	-11.7852
比自己	-11.7853
船夫	-11.7855
总能	-11.7855
小巷	-11.7855
无语	-11.7857
武功低微	-11.7859
复国	-11.786
提起长剑	-11.7861
板凳	-11.7862
陪她	-11.7862
心中一荡	-11.7863
见见	-11.7864
走了出去	-11.7864
若非如此	-11.7864
长长	-11.7864
邪教	-11.7865
初时还	-11.7866
的鬼魂	-11.7868
骑着	-11.7868
原意	-11.7868
信口	-11.7869
移开	-11.7869
那也好	-11.7869
消遣	-11.787
信不过	-11.7871
这两招	-11.7872
摸着	-11.7872
其中一人	-11.7873
井底	-11.7874
甚么时候	-11.7874
挺着	-11.7875
讲到	-11.7876
越来越多	-11.7876
易经	-11.7877
大营	-11.7877
都是鲜血	-11.7878
甚急	-11.7878
郭靖依言	-11.7879
放我	-11.788
魔教教主	-11.7881
死穴	-11.7881
小腹上	-11.7882
松林	-11.7885
挺出	-11.7885
伸足	-11.7888
有甚么用	-11.7888
大量	-11.789
踢中	-11.789
在她脸上	-11.7891
放出	-11.7892
佳人	-11.7893
见了我	-11.7893
之恨	-11.7895
诵经	-11.7896
念及此	-11.7899
好生为难	-11.7901
南阳	-11.7902
重义	-11.7907
精明	-11.7907
有什么法子	-11.7909
熄了	-11.7912
给我听	-11.7913
逃避	-11.7914
已被人	-11.7917
疾往	-11.7917
一顶	-11.7918
百余名	-11.792
的份上	-11.7922
便成	-11.7923
良久良久	-11.7923
只要有	-11.7924
所居的	-11.7924
问过	-11.7925
乱子	-11.7925
的遗言	-11.7925
知闻	-11.7926
将养	-11.7926
黑子	-11.7929
虽觉	-11.793
这时她	-11.7931
下沉	-11.7931
背着	-11.7932
见了这等	-11.7934
[...]
